/**
  ******************************************************************************
  * @file    network_data_params.c
  * @author  AST Embedded Analytics Research Platform
  * @date    Mon Dec 15 16:39:26 2025
  * @brief   AI Tool Automatic Code Generator for Embedded NN computing
  ******************************************************************************
  * Copyright (c) 2025 STMicroelectronics.
  * All rights reserved.
  *
  * This software is licensed under terms that can be found in the LICENSE file
  * in the root directory of this software component.
  * If no LICENSE file comes with this software, it is provided AS-IS.
  ******************************************************************************
  */

#include "network_data_params.h"


/**  Activations Section  ****************************************************/
ai_handle g_network_activations_table[1 + 2] = {
  AI_HANDLE_PTR(AI_MAGIC_MARKER),
  AI_HANDLE_PTR(NULL),
  AI_HANDLE_PTR(AI_MAGIC_MARKER),
};




/**  Weights Section  ********************************************************/
AI_ALIGNED(32)
const ai_u64 s_network_weights_array_u64[12097] = {
  0x1579d81224549e8U, 0x4ef8afc17f13cb3bU, 0xc7ef0594e67fb4f3U, 0x27037cc681c9f64bU,
  0x2facdb81260055f4U, 0xb4b20029d5f32868U, 0x4042b4d4da813e21U, 0x681f7f3e9ffa9536U,
  0x30bef3278152d9c7U, 0xe12024ceaa5e098cU, 0x81b20f45876d4f7fU, 0xbd7fc5eb28e18b97U,
  0x454c7c7d601e44bcU, 0x811b1f7a0f7f7c4bU, 0x54d8c8f22d1aeb9dU, 0x5917adc67f2954f9U,
  0x3681a5a02117185dU, 0x1b01472b811229b5U, 0x9c8237c4dd77207fU, 0x814b3eb31324c736U,
  0xddc816749cc0eb7U, 0x423181e22b42601aU, 0x4c8b6d2fbf10022U, 0xae87a7df117fbddfU,
  0x8686645aa92a1981U, 0xfecbf481521ce971U, 0xaaa87fc5f03b275cU, 0x2c54debadac8daecU,
  0x239f5122ec01457fU, 0xbe5af9a7fa388117U, 0xacd577d8db480481U, 0xe9e7ead97fdf8f6bU,
  0x818da753e68102b1U, 0xceaf921e4d844a9U, 0xfb99888100389453U, 0x18521ee32d2d81c6U,
  0x773ffffcffeU, 0xffffbaf1ffffffd0U, 0x4adb00000a18U, 0x49fffff877dU,
  0x1df8000000caU, 0xfffedbcfffffe83eU, 0xffffc2350000010fU, 0xffffd80400000b39U,
  0x852ffffcedeU, 0xfffff2d3ffff8e06U, 0x10f200001034U, 0xffffd26300000b5cU,
  0xfffffde4ffffffbdU, 0xfffffeeb00000911U, 0x495300002ad9U, 0xfffffeef00003633U,
  0x4018dc03fbef00e1U, 0xf22fef6bd7e138e1U, 0xe1d7e61ae00ccb69U, 0xf8edead3ec15f708U,
  0x2d2308eae9f90715U, 0xfdb90cf6fa0eeefaU, 0x108eae2d4fee1f8U, 0xd409d50a0afdf4c7U,
  0x40142af309180611U, 0xcce60bc91afe1841U, 0x2a4c0bdb0a342dbfU, 0xe21cf12d5dfd3305U,
  0x280fc5fa0fca0201U, 0xdafd2839d0203b00U, 0xf6fff3fbe801e512U, 0xf0f4b1d914fbdd06U,
  0x44fee1eef723f0e9U, 0x4db020ae4281919U, 0xf91b17ebdd23fcd9U, 0xecf0cefd1d0818cfU,
  0x2fe5f51afe06fefeU, 0xb71324e716f3f548U, 0x122b1df9eae026dbU, 0xf916ddf84c102c0cU,
  0x360ff50b50fee6d0U, 0xc90b1e4a011d7f2eU, 0x11d11f0ae918c411U, 0xe7acd40305fe0d13U,
  0x45feec0bf825daf6U, 0xd3dd04fefd401d25U, 0x30152410ea121006U, 0xdfc3d02323e51abdU,
  0x3beae9f8d4130ce8U, 0xcfffd7e4ff06cb3fU, 0x1c26fdfceade190aU, 0xf2f1f04842e82507U,
  0x51e8e8fe1e5920f6U, 0xdb16de6210f11e1bU, 0x1842140fdf150d02U, 0xf5cbf6031d32140aU,
  0xf70c13b7082cf1ffU, 0xe0f8ff05f80e15U, 0xf317ace2e00cfaddU, 0x2c9d2f51cf90600U,
  0x2b09420f1a238dfaU, 0xffbb23de25d11e02U, 0xf4fc1dcfea13f3a2U, 0xe8f9444cf4f7f220U,
  0x1cd411d3ef2af6e6U, 0xe401dd4eeacf2718U, 0x6f7c712ef2ae903U, 0xfabdd6e311ec11fdU,
  0x10f11ed7f128e0eeU, 0xdaed0af80e00fb21U, 0xeef4eadccf0d00dcU, 0xefcdd2f8250e12c8U,
  0x221f1002f6010d05U, 0x602ecd424f1160bU, 0xd1e438d1c6f300c4U, 0xf63c2b35f738e001U,
  0x1dce1fffe0ed0d5U, 0xd4feca39cb9f3af3U, 0xe5bff2c0d6e9cecfU, 0xdee5e8120bfa0617U,
  0x914ffe7fa270700U, 0xaf1d0f1ede02c11U, 0xd016c7ecc3151300U, 0xa2d6e4fe1bd50adaU,
  0xef0110e7f3d6e8fbU, 0x18d305f31ccbfdc1U, 0xc9efe993bf0df9eeU, 0x9efaffe9efbdcc81U,
  0xfd0a34c4e9071d29U, 0x1cf81e05dc2bce13U, 0xfa2deb1e051201f7U, 0xfb1de90b0b300db8U,
  0xf60e1bd0f713ef3fU, 0x2add1afbe743fc09U, 0x128ea0d2a112aecU, 0x2f6f2ed091606e0U,
  0x3812fed429a8e925U, 0x53f34510f7c6cafeU, 0xf312e4c5c9ebceefU, 0xcef4f10f1815d903U,
  0x2fc31f4e9f91b0eU, 0xebecf3fcf13713f4U, 0x1438121903f431f1U, 0xf90ff0040a0305beU,
  0xf9e41cf0f9eb010eU, 0xee9fd0ce7151eefU, 0xfafee6ee12eb20efU, 0x15f6deed0ef8f8U,
  0xafadc1500ee000cU, 0x9202f04f2e418f5U, 0x220b35dad3dc04ebU, 0xd202f821f1081bf7U,
  0x5c5ddd3bd0f17d0U, 0xc736baddfa0023fdU, 0xed4ec4b9fc064af8U, 0xa86cd2bd1b03f68bU,
  0x12dfd8faecf9e8f1U, 0xdf2004f3ecf435cdU, 0x917efa2f9c300f0U, 0xe503d2e6e81101e9U,
  0x2aedc0fc04e1df00U, 0x142c410fd2d32a16U, 0xf71f2781c7d6c2f0U, 0xe3b3c0e31714db34U,
  0x308fd090f1a0cf2U, 0xad9f0d2ff0ffd23U, 0x42108f8fc02fab0U, 0x111fef117f515fcU,
  0x90bfd0afcfff9fbU, 0x4e609f6070d16feU, 0x612fce8f50b18d5U, 0xf7030105fb15f80dU,
  0x2bfd030226e6e605U, 0xe0911f707fe2901U, 0x6f833adce03e0c4U, 0xf2d51129e825eb0fU,
  0x16fdebfa0919e7fbU, 0xdfb0b05ffe2fdfbU, 0x516ef19f6f5f9efU, 0xf8e9efe0f4fe08f7U,
  0xf3fe030f09010200U, 0xfcfc22050d14e3f1U, 0x9f40bdd090f0502U, 0xf6f11208f623f400U,
  0xaeff71d09070d0fU, 0xd091a0906f9fcd2U, 0x16f042c2ecf9d7f9U, 0xd6c008f4d60a05edU,
  0xe8de0bf6e0dfe9e4U, 0xf121e0e9f9b61bd6U, 0xe42fabdaf1cefc09U, 0xe95004e4ba0ef0dfU,
  0xdfe42bf9c3f7f800U, 0xe0240501fdbd10b4U, 0xfcd602f9fcc6d3faU, 0xce2f1d259d120705U,
  0xcd1bcccd09f8f2U, 0xe225f61be1c71bc1U, 0x9ca0402d0d08109U, 0xc7f714eaa31f0512U,
  0xcdf9021a0eb8d0ebU, 0xa8e306a6e510e510U, 0x420a5eaab2181bb7U, 0xfbf4373e03e3f4f0U,
  0xc4eb2f3e08bdf4e3U, 0xf2f504e4f9f80cc2U, 0xd5e002f407ebc200U, 0x9444021d00dd0f7U,
  0xc4011b0fcbcfe8fcU, 0xe4f9d2d6e23ad886U, 0xb9dbef2e25e5f925U, 0x401dfb19a82bbaffU,
  0xde04ad0ae42d1900U, 0xc0dcf4c6e41bc824U, 0x1d1a3ab9d10124d8U, 0xd9e4e7e9250dfde9U,
  0x807320d1ff0e5f9U, 0x160c35e310f103f3U, 0xd00d2be00b00dafeU, 0xee0539190b0af915U,
  0xeb03f6dbdffa14f4U, 0xdee5efdcef1581c9U, 0xd717e42d04fefc28U, 0x38dc13e0f50201eaU,
  0xc906f1eef44020ecU, 0xa3c0c9b3d034ce11U, 0xdc2f5d8ff40b50e1U, 0xbd24234c294700d5U,
  0xeefc201b20dfdb03U, 0xfcbf0f02ff0513fcU, 0x2fef8f90a24ec05U, 0xa1a42421fe6ecf1U,
  0xf12939dad3031b20U, 0xda8412f21203ecabU, 0x82d946222112120U, 0x20dd16fc17012ac9U,
  0xc1ccec19e6a51bd5U, 0xf019ee0bdbe2e2e7U, 0xd1cae6f014c1da24U, 0x23ff0fd7d7f3b318U,
  0xe3e00e09f0ebfff6U, 0x25f108e604fbe2U, 0xa2fad71516ece20fU, 0x27240df5ebeeb007U,
  0xc5f01cf7d9fb00deU, 0xf5cbcef4de27f9dbU, 0xa5f9b22233df0d1aU, 0x2df6eee7f00cc0faU,
  0xff60702f0cef9feU, 0x1119f311f9f609fbU, 0xb7deed0703e8f105U, 0x1b2614ffef18db18U,
  0xfe0b18f508f909f0U, 0x21f01d05fa19f6f5U, 0xe5e9f6ff07f5de07U, 0xfd0812f903fdd3faU,
  0xc50e1e0c0218fff2U, 0xf4ebf3e3050af6f5U, 0xc60bba16200b0b1bU, 0x1419ffe4feedc2fbU,
  0xe8dbdf10ed9b12f1U, 0xfc3f090101ccf4e9U, 0xc70aefd1f8f0d51bU, 0x30e04cada14c11eU,
  0xeafff2f90df600f1U, 0x71f05f7f90beae2U, 0xc5e9f0f3eefef70eU, 0xfbecf6e5061ad5fcU,
  0xf509f00cfc100929U, 0xf0f3f2f418088111U, 0xcf18c63efa301a30U, 0xbedeeee2415c2ebU,
  0xb2f123f2facd3208U, 0x1d0dbce8fcf7e7ecU, 0xbdf781562cf50f1fU, 0x382a01dff321c102U,
  0xdbf515f602f21cf9U, 0x21f8e8dce42cf11cU, 0xd6f9b91618f91115U, 0x1d1a06eef902e5f3U,
  0xf218e4eb1118f8U, 0x2ee1d3dee51bd7f7U, 0xd2f7c81c250e3307U, 0x17170de9f804da11U,
  0xdcf0f00102f01c08U, 0x10ef6fbf70ce1feU, 0xe0f4d31016051120U, 0x14070bfef713da1aU,
  0xd509f8eff8daf308U, 0x1f0ff0200f4e7fcU, 0xe3f8d6000af80307U, 0xf4edfbe3080bc5fcU,
  0xd711fc0204f1f919U, 0x15fa1eea0200dafaU, 0xedecdae70119ecf9U, 0xf7e80ddff5fdbae7U,
  0x40c0e0f1ae0fa07U, 0xfce22d1a0501e806U, 0x8fa28dcf60dcff0U, 0x2d81a1e1106f32cU,
  0x13fef1f513e4f910U, 0xf2f621fd040229e6U, 0x1cf018f0f4f6c9faU, 0xd2c42122f0030af8U,
  0x2515f90f10ebcf18U, 0x9ed23ffeef0131cU, 0x17031ff3f501c416U, 0xeecc181b1609e308U,
  0x17cec7bcbf271606U, 0x28ebd8e5bedfddfeU, 0xfb1a812153e62a33U, 0x44fba9bdf41fee06U,
  0x1bf2e7c914ef33f9U, 0x48ed00cec305dd29U, 0xd705e7be40e8f0efU, 0x1bffe7e619f3df12U,
  0x2601dce82c3310e6U, 0x18f4261ee1e1264cU, 0x2ff4208cb920d7cfU, 0xd8e0f80134ee04faU,
  0xca05e9e502c309faU, 0x58160ce7d3dae80fU, 0xd4e9a43d3afe2307U, 0x291ce2a9e0d9c419U,
  0x14f4fbef20f4dd1aU, 0x29d93a05e0e818f6U, 0xfc9f289aeb04c001U, 0xedd4140cdc0bda0eU,
  0x4fdfc000f17acd9U, 0x6000813e7f924e8U, 0x280421d7def5df02U, 0xdaf51919e0d5289dU,
  0xa7f9011ef0d2eee3U, 0x220bf7e0d7f816ccU, 0xbd1da4f42edd1c1aU, 0x72efcd4e500dde6U,
  0x4093813edffe920U, 0xdf303080ef217ddU, 0xf1d3bedbf7f20008U, 0x525210ef2fdf7baU,
  0xe1f52db0ca2bd9f0U, 0x1d6d40ef0161fe7U, 0x1e171014f9f815eeU, 0x1c290927ffe626b9U,
  0x191012f81228ec03U, 0xf229092021f21616U, 0x190608d9f9f6011cU, 0xee072a07140b22fcU,
  0xf91df90cf31ceaf5U, 0x7230915080b0602U, 0x1af9e3dbfaf8f53dU, 0xf101fb0101f419f7U,
  0xfd1ef808e4e827f5U, 0x162ef512f5f3d817U, 0x217d10bfd19ff7fU, 0x191f060835d9f7e1U,
  0x10cedfb0be3fd16U, 0xe0001a0015f2fb03U, 0xfa03f3d9f6f8f7ecU, 0x8d5ebf102f2ea13U,
  0xf408ebfe15f6da04U, 0xf3ff1f0e0c0f03f9U, 0xf03fae30f10e6f3U, 0x28c9e8f108e40305U,
  0xfb12c9ebfde4fcf6U, 0xef214010b02f724U, 0xf806d8e90b19090aU, 0x15e3eceb10e80005U,
  0x13ff060ff80411ffU, 0xf706f3fb18f9fc06U, 0x1309142ff9f2f23fU, 0x22e613fcf904fd29U,
  0xf1f1f3eeec1003fdU, 0xed0c0bf4260ce8fdU, 0x1d00071af3fcf21aU, 0x29fc13f0eefff708U,
  0xf8ebeaf2e6faf4efU, 0xdb04eb0717f2eb1eU, 0xa231af206fd26U, 0x340a1e200605f41fU,
  0xee133d91faff0adbU, 0xbc05d8fe09302341U, 0xf6f6eabfa02a1cf0U, 0x981320141934fdd8U,
  0xdd06ffcf04cf1300U, 0x21d1ffe519ea070dU, 0xc3f4dfacee17f21bU, 0xa2f4210af228c4d8U,
  0xfd39211909182d1fU, 0x2fc62fb51727d4ffU, 0xf126fbae1313fff4U, 0x15ec0003f64001e3U,
  0x1cdf24321526d2dbU, 0xa90ef6f6e819313dU, 0xf01226f9ef02f6eaU, 0xead711f531d3050fU,
  0x1eeff603f6f7ebe3U, 0xf8ef0d0af306eef8U, 0x15d61ce1b1ffc60aU, 0xc09f0221f909f301U,
  0x201fec7dbbf2228U, 0xeaf3f0e1fbe881d6U, 0xd7e9e6b4d7e5d447U, 0xe5fc1913001c90bcU,
  0x3fcbde18f50de4eeU, 0xd3050efcef232d21U, 0x23d72022e6ded8e2U, 0xf39a121c33081b16U,
  0xae9f103e211d0bfU, 0xfa2b2411ea1b26e2U, 0x25103bea05f3ddedU, 0xfbb1cb1727e3600bU,
  0x3abcfa0197c42fceU, 0x610cff7c9d28ad1U, 0x1f9230bdcce0355U, 0x43d37212ae5e7deU,
  0x99f8f0231b90dbe9U, 0xdcdd11deec1ec7f8U, 0xfde451d5d7f5eab3U, 0xf4de1b18f7e3ec1bU,
  0xe1f11035f4b9c9e4U, 0x131cfae3ed18e5U, 0xefcc20fef3d4d4ecU, 0xfb15371fd4f8dd09U,
  0xbdd6032ee1aba9e1U, 0xed06fcfad91afec2U, 0xd181172514c9ad22U, 0x241b2beb99f2bbfeU,
  0xdf08061521edd1e1U, 0xf0ff06010c203608U, 0xea2b18ebfaf5e5ddU, 0x7fbfd04f903030eU,
  0xfefb05010ccfe60fU, 0x2c0b1c00fef51af2U, 0xe6071df50206d1e7U, 0xf0fe1c04ec02f20aU,
  0xd5fbf61408d32007U, 0xc16f61de81601eeU, 0xe502ec2615faea1eU, 0x1b2520d4d7f6c305U,
  0x2a16ea060002020bU, 0xf6df4d10fb01fa14U, 0x330d08f0f2f4b9e5U, 0xfeb1f707fcfc0e1cU,
  0x5f7f802f3faeef3U, 0x13e62502dbfcd6fbU, 0x15f00af4fefde210U, 0x3f0fc1efb1ffd09U,
  0x9f6dc11f7eb180dU, 0xf70f0f0fdb03d202U, 0xfafd1424fee4ef3fU, 0xf912f915ff1fe311U,
  0xba11180906e2f201U, 0xd1e0ed81f62dab0dU, 0xf4082720cd071ed9U, 0xeb250c2a13c3e9daU,
  0x170c00df2010f009U, 0xf5e605f60cfee10fU, 0xf909fcfcea0e09fbU, 0xdd03eb0e0fe40ae3U,
  0x2611f6c50e12252bU, 0xfced0d09f90fe419U, 0xc24efdb10190bf7U, 0xe4f2e60d0810f4f2U,
  0xff1b1efd06160b09U, 0xebec00c30710c8f7U, 0xd510f217f90f21e0U, 0xf72a181f10f1e9e7U,
  0xf70718de0fe70d11U, 0xce5fafcf70efffdU, 0xc503e412fe150606U, 0xed0804fafd12e0ceU,
  0xfaecfaedde2b26U, 0xf70cf804ef05e611U, 0xee11edf623f5050cU, 0xd15f2ef0827e6f7U,
  0xe3fc1de4f4ec0cecU, 0xdd1308df1cfee8f5U, 0xe61af10102fd1909U, 0xb682000faf0e6e4U,
  0xdde5faeffcde01f2U, 0xfa1c04db1d0813ecU, 0xd304ec0d080e0901U, 0xf24c09d30808e1e4U,
  0xbe30ed8bde839e5U, 0xcf4813efeaebe7eeU, 0xda08b2200dd205fdU, 0x283e11c0ef21e3fcU,
  0xe0d51cf3e9e450ebU, 0xb0cfc0604d10607U, 0xd403815c25f3f22eU, 0x273817dee415d71cU,
  0xe8fb08e3eddd23efU, 0x2af22fe60d18f5dfU, 0xeff3baea2517f501U, 0x810f6ebea3bd9f9U,
  0x131b180a2ad0ff32U, 0x391a3c0b03e70810U, 0x2ad6fec4eb0bf2f7U, 0xcb080d06e20eebfaU,
  0xcbefdf07e1eff40bU, 0x2a26dc110eeff9eaU, 0xf3f2c23412d7f63cU, 0x1a2eead3d8ef0824U,
  0xf7fd0defd102f00aU, 0x100913f810090604U, 0x60de016f0fff41aU, 0xebedfcf1f7f220f1U,
  0x19f00406ebed000aU, 0xf3050c151bfb01e1U, 0xece4faeb0a140dU, 0xe703f8e8e11c00f1U,
  0xd6d5dbfac6ef11ffU, 0x320bb1f6e11bcbcfU, 0xc21eb0fe04ce1c09U, 0x2550e6e1edfdd6e3U,
  0xe0d4fa24e1fbfbe0U, 0x112aeeddd7d8c2c5U, 0xcc4abf2affaf14f7U, 0xc7bfbdbc9d1f41eU,
  0xddc0facdb0fc14c3U, 0xd83cf2fcc4bf0e89U, 0xfb0c9215e8c1eeefU, 0xd95d05a68edb1feaU,
  0x540d32be1f4b0b08U, 0x1ec1ebf1f8fea025U, 0x936df192b193fd9U, 0x134c503314c2ff9U,
  0x552633cb5427050bU, 0x369c28d409eff222U, 0x31490eae180d0194U, 0xfbd2c92536fd47efU,
  0x55ebe82e51fce60bU, 0xc43641dd80013f9U, 0x5c073f8902e0bf81U, 0xee10210ed3123533U,
  0xd0518df1325ec09U, 0xeed61f130ec300fbU, 0x15f9e306fc2601faU, 0xdcb9e821f01024fbU,
  0xee23d9adf1e3ea0dU, 0xfcde02f9f8dac6e5U, 0xffdbeee207e0e1d5U, 0x12cb0d2fe7e8e102U,
  0xf5d5813dd1b80f09U, 0xff390b20ffe3debfU, 0xdf0fd0838b4e3f1U, 0x55090dd8c7f6b35eU,
  0x326e5f91b22e20dU, 0xfd528ec33dcfce5U, 0x251be7ece821ecf1U, 0xf7c5dd04d3c2080aU,
  0xe80ee0fa15ef030bU, 0x16faf7ee260adc03U, 0x16c2191c0903d520U, 0x11f5f00e121dee08U,
  0xe3fdb70de0ca4016U, 0x930101efc1ccf03U, 0xf0f21a2ef4efea47U, 0x2cfff82df841e939U,
  0xc80645353903cc0dU, 0x30350df30ea31abU, 0x2ed321d1f1e4f7ebU, 0xb3253d1edac00bf8U,
  0xdc0e1de9dcc2e90eU, 0xf41a30fd20ae0dc6U, 0x18d306c5a6f6d035U, 0x812d211ff6ba32cbU,
  0xbc2654c33684cefaU, 0xecdb2de7270804f0U, 0xb7cc0327e41f0c2aU, 0xb85a3b400606c78dU,
  0xcb096094be1fb842U, 0x1cae05d0293fdaa2U, 0x43d4c20d1ae600c1U, 0x1bff3d29e6ec21d5U,
  0x2f0b04fa2912ef1fU, 0x2af62add19fdfc01U, 0x6f7f8d41c1edf12U, 0x1bf30103fde80514U,
  0xc41e2afc37d1d219U, 0xebd93cef2a0dff25U, 0xdbf4f6caa842eae0U, 0xc3114422eee202c4U,
  0xd60242d6e7dbd8fdU, 0x15dbf9bd29fed7e5U, 0xd5bfedee0ff8e8e6U, 0x121f371cce14c2f2U,
  0x2e60ee826ddc402U, 0xf82b2ab121deddf5U, 0xcfc706e3e7e989abU, 0x13e8101ee9d9d61aU,
  0xda1018f426e6aa01U, 0xe9f810fc17ef5b0fU, 0xbf82cfae937d5f7U, 0xe611272fe8b7210cU,
  0x8e9d31d07d206f4U, 0xe10a1e15d0fc1ad4U, 0xf7e315eff9f6bfe8U, 0xefd3f7f2d21cdd1cU,
  0xddf80714d1ddfbfaU, 0xec121805ece10ec2U, 0xbafc14e8dfd6f7U, 0xf2fc3b2fc720ea06U,
  0xe2f1e503d1e6f11aU, 0xe806fd24e8010ba7U, 0xec20e25e9d0fc29U, 0xe042ae6c804ec0dU,
  0x50ec2110fe5f70bU, 0xa0b161deee809f1U, 0xe2d0e61407f6cb1aU, 0xfee9e0b2dc09f428U,
  0xf8030cf5f5040f03U, 0x1e001cf3ee07d200U, 0xfafce8031af00dfcU, 0x80807e9031408edU,
  0xe9e53feed0191be9U, 0xf2e2ccffe60bcbd6U, 0xf613eb2a16fc5008U, 0x1f2e1deafeed0ee4U,
  0x4ffce09000d1afcU, 0x909ee21d9cafeddU, 0xde12d73601e6ee3dU, 0x17f1bfb40902f12aU,
  0xf1620ed04fff50aU, 0x2ef711f9e310e1ffU, 0xfdfafcf3fcf8fdf5U, 0xd0b16f5fa04fe05U,
  0xebfe7fcada111aedU, 0xd6dbe61bee0606c4U, 0xf916a02722f81af8U, 0x101a35e1f2f016acU,
  0xe6f6d7d4ec13e3d4U, 0xece0eaa9cd05aa29U, 0xe819e7c0f60810d8U, 0xc7dce3f32af6f0eaU,
  0x30ed1020a26feebU, 0xe3e1ece7ed1ed613U, 0xa06f2e5030b07e4U, 0xe4f393e81619210aU,
  0x2d15e7cf22371bfcU, 0xebc100218f30c49U, 0x1222f4ecda3c06c5U, 0xaaded52d45fe070bU,
  0xf5f114eff70319d9U, 0xdcdacab7d91dd614U, 0xe1170981d303fbe8U, 0xcc092b210a17e9eeU,
  0xef22fff2060c1efeU, 0xafff8151711bc0bU, 0xeb03ffa5f710e500U, 0xecf305051218f3feU,
  0xfb1c28d8fbfdfe16U, 0xe8e91dc52e04f817U, 0x10ed17f3f52501d9U, 0xc3d11c3a162706e7U,
  0xfbdc1905ec13e1d3U, 0xabbbaa9edc2f0c0aU, 0xde3c158ee90447e8U, 0x9c103e0624ef05a3U,
  0xd30009fff00cdee3U, 0xdfd9f6affcfef00bU, 0xed08daece90a1304U, 0xfbfbe7eefde70cd4U,
  0xe01f15ca140ce40aU, 0xdce8f9e51909041aU, 0xfd19041405361602U, 0xe00204030e0a07e5U,
  0xcdeb09fde314d7U, 0x3622ff26e8cb1300U, 0x1d3d907fddcda2dU, 0x3407ceb30efdf331U,
  0x19e913f1ef1b11dfU, 0xee04181df5f81211U, 0xae9f4cef001fdf7U, 0xef016e50d25f109U,
  0xebe33abefc4fa1afU, 0xdbd0c4f8ea0d150eU, 0xfacbcd2a45fe18c7U, 0x28ea17ddf03b29aeU,
  0xcac7bd1e15cdf4d6U, 0x103b2122f0d216f9U, 0xe2ba1cdfc3f4bafaU, 0xfc0e04fae01cdc24U,
  0xfedb132ae9effce4U, 0xe3070119ecd720e6U, 0x12f80815ef05e9edU, 0xf5ea21d8fa1c0311U,
  0x7cf4bc0e119e2dcU, 0xe5ead306d3df4fd9U, 0xcf1d10af4f318e4U, 0xf3e916e5e8100ac1U,
  0xb8d1a930078107bbU, 0x125a220ec8c0f6f2U, 0xc6c1222ee2ccc413U, 0x362c10facf25b83fU,
  0xf1c1e823f6d428c7U, 0xc93ef018e1d80ee9U, 0xd5cd3109e0b8ead4U, 0x63235cfb42fe321U,
  0xf3ae14bee60320c1U, 0xd2f6e608d1bc509eU, 0xf0b8ab14ebddaeeaU, 0xe8e105cd810d0ed7U,
  0x11060df6f51741d1U, 0x131e849e3e62d0dU, 0xe204db300914e028U, 0x2e13fbc0fa2ee63bU,
  0xfdf6e7d3e4151edfU, 0x1102e009e6edf20cU, 0xe4ecd3130bf60107U, 0x1905dfb3f000edf5U,
  0x13f602070f1cf6f4U, 0xf501fae914f3f713U, 0x1805daf4f603f601U, 0xaf70cea030df1feU,
  0xe0240835dfc3eafdU, 0xf6502c1be7eb09d9U, 0x3d7d3dff6e2e046U, 0xd81b1bfaea15ec0eU,
  0xfd390afce9fe0506U, 0xf5f8fb01e8f3ef01U, 0xeb08e0d70c17ee26U, 0xd8e5f00bfb0ad8e8U,
  0xf32b140cebf4fa12U, 0xece4060009f60209U, 0x1414d3fc06230bf8U, 0xd20611140812e8daU,
  0x1305d5f114cb0116U, 0x17f24d1ee7f2da1eU, 0xffae7def7fed0e9U, 0x8bdcdf2fdd1e72eU,
  0x1002c5e926fdf00aU, 0xe4e32123f21d390fU, 0x1d162591e917d7eeU, 0xc78199f411f008e9U,
  0x23faebf10b3be5fcU, 0xf7c71b07f30b0b4dU, 0x292611f803331e18U, 0xe5b5c03036131ec6U,
  0xf41639e308f70401U, 0xfbe8f9caf5e705f2U, 0xfb32d40e161b0808U, 0xfdeb1df503fd0af0U,
  0xfed9feefee0e01f9U, 0xfe18fde5ea0017f7U, 0xfd05e9f506e6ddeeU, 0x11ef0d0cdd1bf90bU,
  0xfc8810dfce11f02U, 0x45a1a3ecfe90eefU, 0xf4e415f5eca4ad15U, 0x271de0d9b218ed52U,
  0xfc1c28fe0505e31cU, 0xffd111dbfafd0b07U, 0xfdebd5d916fff2fbU, 0xe1d025fb091103dbU,
  0xf404f41cddf9ff20U, 0x11016e6ed0b03d7U, 0x12efd8fe0ed3e8fbU, 0xd8e31409dc0e05f4U,
  0xf0e7a436d1d40afcU, 0x1736151ecdd414e7U, 0xf9e7dbf703c0eb36U, 0xd3f3c6c2ecf5db0fU,
  0x311621c3022b1535U, 0x1ad18082113e727U, 0x332bd00a100622f2U, 0xd7bb0c0f2c1920cbU,
  0x2013cfebf40710U, 0x14e10ef0f437df0bU, 0xb07bc1819f428f0U, 0x20f6f5f30c0c16d3U,
  0x1000b5e920010c01U, 0x43002d2ceff6e908U, 0x24cc27e4e603cde6U, 0xdbaee12811d5320dU,
  0xc8e8f715058da606U, 0xdbd8f8b5e403ebf4U, 0x27e463c0d10308c4U, 0xd3e05331fbcefae9U,
  0xefe2e531dcb9da06U, 0xdcf1cdef02f0ff07U, 0xf3b82f00c6e7ffe7U, 0xfef84127fd0bed0dU,
  0xd4de0042d7b7e402U, 0xe10a0add05feb9c4U, 0xe0b53d01e6e4f819U, 0x26136e2bda08c007U,
  0xc409fa00f2dbc9f5U, 0xecd9f6e8e02af4faU, 0x2bfc18daf1f907daU, 0xdc03310b01ee0edeU,
  0xd700f501efe824e5U, 0x2f9e801e222ee19U, 0xf2f6fc0e15f307e4U, 0xffffffe90f20fff5U,
  0x17f3f110f5031610U, 0x101eef01d91aea04U, 0x1cfa08090fecf61eU, 0x32d1400ff0ef90fU,
  0xa7cce0fbacf70dfaU, 0xc41db4e9d006e7f5U, 0xcc44d80f07d748ebU, 0x357ff4dc03f7c3feU,
  0xcb3e6fad8090cedU, 0xce36effbe5d731f8U, 0xdb39ec1ae2ee070dU, 0x1a40fbd20522e427U,
  0x9e8f1ece1d205eeU, 0xf53800f5fae30abeU, 0xc106dcc9deeb02fbU, 0x52909b3d202c92dU,
  0x4efff123e03f40bU, 0xfbbb25d50334d940U, 0xcf833e3cf12e783U, 0xf1d3fa2e3afa0404U,
  0x9e4fbf5f9f4e7f6U, 0x9d5f4f9eef7d6fcU, 0x7c719e4fbf39194U, 0xeee63326f1ea06e2U,
  0x13ddf133ad0a2901U, 0xe306e90cf7f7f2b9U, 0xbf7f80733810c93U, 0x29f017dd9f2af63cU,
  0x141712f91aed0307U, 0xbdf1300f4140a0dU, 0xd0220d6f10fc0dcU, 0xe5b0121adf03f1ecU,
  0x11ee15d7bcfbf819U, 0x2f109dce6f4efcaU, 0xfaf6c80708fdebeeU, 0xfce40d2aea3ee904U,
  0xffe1ccf8e5f02002U, 0x1f1d13f9f5ecd8e4U, 0xd919fb1c19d508ebU, 0x38f707fbc93ac23bU,
  0xa032e052119fb25U, 0xeeff18e7fa0028c9U, 0x1cac03f3e4108624U, 0xcfb22708c90711e4U,
  0x1f80503ebdf1e20U, 0xfd10f3e1ec0cf4e3U, 0xfa2aeffb0bfcf510U, 0xf4241ef7e52fe9f4U,
  0xed09e126e4b01605U, 0xfe2bf716e7c3f1e6U, 0xd80df10e0af5ff2cU, 0xf223e8dfe3f5bb2bU,
  0xf91d09cdbfdaf515U, 0x260ce5df17fdc4e2U, 0xecfff2072acb0829U, 0x1825fa02de11120cU,
  0xcd85823c50113cdU, 0xf91825d30228d5dfU, 0xe0b0f833310b0e15U, 0x2a171318ff11f30bU,
  0xf5ed7fcfe8f5ceddU, 0xecb3dd95ead8bcc8U, 0xcba6cf3c072bfe01U, 0x1513303b17f2feb9U,
  0xe7e6140dd9ed04efU, 0x1f0bdf00ff3e16f9U, 0x51efc151fe50604U, 0x144aebd1f01a24fcU,
  0x17f435ef1d0ef81aU, 0xe917202809080d09U, 0x18efefb5e700cef0U, 0xf4000610060a2609U,
  0x61439c94a0bd0e2U, 0x9ddfafb010b2916U, 0x10eb28cde335d001U, 0xd9eaf31e09e81fdaU,
  0x88e5efd8b9ab0bfeU, 0x1f23bb0ccfff0db8U, 0x8f16fddad7bd1b00U, 0xe56e1bcdd316b7eeU,
  0xf4e612d93ce9cedcU, 0xee371203e4b94ce2U, 0xe30e269ee80badf0U, 0xcffe0100bd00dd21U,
  0x6f81bf43ee9ac03U, 0x2ed629ed0ede55f9U, 0x2cdff7b3dc28e0e2U, 0xacc4efee02ec1ce3U,
  0x15fef524f804f906U, 0x6eef904ffd107ddU, 0xddf16f7fde2ede5U, 0xf1f10207c8e71b0cU,
  0xfd4e11edff301f4U, 0xf7050312f9060ad0U, 0xffc314f6fccdeaf6U, 0x1a0afffad90cff14U,
  0xf3cc1609d5020bcfU, 0xc7f8e913dd05fcdaU, 0xe803e13c02c4090eU, 0x170a0cd5ee1605ffU,
  0x13fbf01c0204e70bU, 0x5050ade11d9fcf5U, 0x6f307f210f3dbeaU, 0xfcf60903cee9f814U,
  0x11e4f20001f71703U, 0x6fdff03e00df6efU, 0xbd6050201eaff0bU, 0xc1efcfce50cf807U,
  0xe5e865f1f31604eaU, 0xe6e5f219e9091a04U, 0xeef4d93b05fe03fcU, 0x4101406120ce5U,
  0xfde80510f50d100dU, 0x911e5f7fbeef5c6U, 0xfd02e2f705adebfcU, 0xd24efefa70108f4U,
  0xf0cbf10bfdff0af5U, 0xfc25d9fcdff50cf3U, 0xe5efe3060dc5de03U, 0xf31f2daa701fd1aU,
  0x12ca4fed1808e0d0U, 0xd511d6fbe9c47f04U, 0xf0f9fab114f1c1f2U, 0xd6dad9d9c4310e06U,
  0xf6eff905ececf9faU, 0x181a0d01ee0be0U, 0x190003e6e4f0f30aU, 0xddfb0509de0d04f2U,
  0xebf00b02efe7fafeU, 0xf70cf30b04f0faecU, 0x6e3fe03cffef00cU, 0xde0f1905fff7eff6U,
  0xecfd09d1efe929f4U, 0xfd13df0ae7f7e405U, 0xea10f91905fd0318U, 0x60d110a12f5eaf0U,
  0xf0f7e7e9def5f617U, 0xf09f9fae6f4ecf0U, 0x24fff4f6fee5f504U, 0xf407f803f1f90206U,
  0x5f41bf61ffdf606U, 0x1bfdf502eefd190eU, 0xfef815f9fa120b11U, 0xf421282a0403fe09U,
  0x13fc18fb0af8f8f8U, 0x5f2fd00f001040bU, 0x1fd05edeffa0d01U, 0xd0ff021407ef00e4U,
  0xe6e987cce8f503f8U, 0xff6f6f0e4e28d03U, 0xf0c0d2e6fce5be07U, 0x39681be1b12db1dU,
  0xe7f6edf309f5f8fdU, 0x601fdf8eeed0302U, 0xf4f106ebe9ffd8fdU, 0x1dff3f50703ef0aU,
  0xae2e102fefa00f0U, 0x40001feeee9170fU, 0xc0016f3e7f4f603U, 0xefd7d1fa03031106U,
  0xbf1628ddce371cfcU, 0x7cddfef1bee12U, 0xcb3beafc181c25deU, 0x1c1af2f8061301caU,
  0x91034ccfc2d18ecU, 0xfffe3fafb22101cU, 0xf915c7fd2b0dfee9U, 0x1414e5dd153d1ef4U,
  0xefaf8e509f74ecfU, 0x2826e404e9f9032bU, 0x522d9e51cf8f911U, 0xf325d5eb10dc04f5U,
  0xbb11ee03f7d90ad9U, 0xe015edf303f4e2fdU, 0xd5ed05da0df90b08U, 0x925ece0f70ef5ffU,
  0xf403f0d314f60911U, 0x231920ecf9ef00f9U, 0xd7d9f2cdf3fcf805U, 0xeef7d9e4f726ec05U,
  0xf826f90500f1d907U, 0x9d2140f06f6fffaU, 0xe6c813bdedfdd7e5U, 0xa8b9e2e4fb0ce2eeU,
  0xe5ff0a110aa506efU, 0xe18081a0bf42a04U, 0xd0c72a81ce16dffeU, 0xee354b26f616ba0eU,
  0xf90337f42cd8e301U, 0x8dd270ffef9430cU, 0xf4062b98e714dcf0U, 0xc5e82e2e0bf3e3fbU,
  0x7212d070fe8e335U, 0xd93803ff021308U, 0x240717dc0b01e908U, 0xe6e61d12050804ecU,
  0x303affa7f1392809U, 0x202e5dc0f2df432U, 0x173ad80124fb12c7U, 0x107b7ef1f2213f3U,
  0x491adaf7f9250fdfU, 0x303f12bf11b1509U, 0x262e26d911ee15f7U, 0xe1cbb0061b352a35U,
  0x38f2da25ff2ce6c9U, 0x98191e0ef6174911U, 0x212928ef18d0f9abU, 0xd5c21614fb513e29U,
  0x1f31d6f2f41a0e1cU, 0xe7ee12e50ef90f2cU, 0x1303e4e0f7da07d6U, 0xe9aabae82d3228fcU,
  0x2916b711e6f6fafbU, 0xf9e70517e7ff26f1U, 0x7edfdd3e6e7e8f2U, 0xe0a881d9fa20fb14U,
  0x271b8e0dc3e7140bU, 0xe30a3c19e706f5d5U, 0x39d5fcc831bcd4d2U, 0xfcd9e2dfe65a0346U,
  0x52fe510f437413bU, 0xf8e4c80500f0e306U, 0x1123ba3336e12008U, 0x2400cfc4f43b0628U,
  0x130abafecbfb26e5U, 0x2307dafdf111e5dbU, 0xc0f7ba25f4c5dcfaU, 0x28e5ddc6e843c833U,
  0xefd599f6aaee6e04U, 0xee48330fcbe9cdc3U, 0xddfde3918b7e30dU, 0x3f3e3be6af42e86fU,
  0xf8f3e8f4f5ea15d9U, 0xed172811e7f0e1c4U, 0xdfd4e4131de7d633U, 0x1df4e2d6d824d4fcU,
  0xddee12dcd7faff08U, 0xf6f0f1eef10be4e7U, 0xe70cb13117dd1512U, 0x2beee9d9f211e7f7U,
  0x14f8db9cfa1303f0U, 0xf2bbeccde219bd08U, 0xf226a41923e602e7U, 0xcb9b0da210f0602U,
  0x22f2f40bd1050bdaU, 0xf015d316fb02fbf5U, 0xfeee25eef1f00c18U, 0xe0e5f109180b0414U,
  0xed011704e6faf310U, 0x7e0f2efe718f2faU, 0xf107f70a1b0006fcU, 0x8eaf3020f0efed5U,
  0x12e70af314ff0602U, 0x15b415f2e2f4edf2U, 0xd11bf1e419e2fed3U, 0xfaeedafc0c0cebfcU,
  0x28e9190fe71702cbU, 0xc6f7c00cde171d07U, 0xf2204881ef0a1ff8U, 0x8eec0e422628f4d8U,
  0xbef1debf5f707f7U, 0xf5fbd2faed061401U, 0xf223edc51df7f8ffU, 0xff0ef0221402fbe3U,
  0x2bf32f120ee2f806U, 0x12112fdcf2ff2616U, 0x10c2cc1f1df01e3U, 0xeafbe9352c20f131U,
  0x2c1019eb0924ce15U, 0xd7f41e3429eb5a25U, 0x1cf924c3071901e7U, 0xc1bb1e260e421ef3U,
  0xfa06efe2f7e9ecf7U, 0x2be644f32dedc6e6U, 0x2c703efd508bb22U, 0xfaf4dedadb2005d1U,
  0xe10cf8dede1f241bU, 0xf60ffdf10df6ad11U, 0x2411f00e0de22a47U, 0x2d4c09f3200a0adeU,
  0x2af20df511ffd3f3U, 0xd203331d08f839feU, 0x300958d9de09c405U, 0xe4a11e2bec0b1ef4U,
  0xd1309d7fdf61a07U, 0x2ae81eeb0a04cbceU, 0xe5cce8f3ddf8e728U, 0xf8f3e4e8ed0703bfU,
  0xfb13f5eba50a3e0dU, 0xf8efe6ea0420aa14U, 0x519070441d44605U, 0x414bf1f20a20f7ffU,
  0x3efaf3020f12d6e3U, 0xfe003424f23306feU, 0x48fa4e01d3f9b621U, 0xd281f709310934e9U,
  0x270103efcd1932f2U, 0x8cd0ee0fa559e0fU, 0x3519100908f24c2bU, 0xfdffe8ea4b142aacU,
  0x20eae3f5950847efU, 0x1210ede5e82da7f0U, 0x701fd112ac3262cU, 0x252ff2e2020c11c6U,
  0xa0ec0fe2ecd337e7U, 0xb52def06f8ee02f5U, 0xee02d3a9ddf315fbU, 0x81f00e9fb07040dU,
  0xae6fce5f50f1af5U, 0xe122d62af5e321f3U, 0xede2ffb9f1e9c8faU, 0xf9fe1bf7de1ef726U,
  0xdffcde1efbed1f17U, 0xa30033200d110d6U, 0xd5ebf6ec07f0b710U, 0x6f9f5bbc419d612U,
  0xd2e7b905e7bb1bebU, 0xe82c05fff9e0ea03U, 0xdb0419bddc001adeU, 0x180e1a060414ca2aU,
  0xe2e9d229e0bd0bf2U, 0xce32ff19edd921e1U, 0xd4cd12fed6e5e5e1U, 0x23f809f9d91dd927U,
  0x2fedd1be8cdec1eU, 0xfe1cf516f4d0efc7U, 0xe281ed0ad6cebe1dU, 0x6f9f2e2ad11d10dU,
  0xe2eee606dbbadbe2U, 0xa6c3ebd50319e901U, 0x351332bee00609d3U, 0xd8aa284717edfdf1U,
  0xfefbe907edfa0019U, 0xe4fa0f06070e240fU, 0x24fd0d14e8120d14U, 0x7d01e2610082f0eU,
  0x1aecd105e10805f7U, 0xe5f6031cf8fed808U, 0x7ee1718e5f1f425U, 0x13cc010f04eddb1fU,
  0x230913001cf9ebf4U, 0x34f0160beb0624f8U, 0x170c0fd106f002e7U, 0xf30b0104fb01f2U,
  0x20e500221403f8e8U, 0x18fe0909fee43014U, 0x28f60381def7dfdcU, 0xeae61303ff0b1213U,
  0x19e20e0c0efef50aU, 0xf5161c070209310aU, 0xffef8b9c401f5faU, 0xcc0b0f1a0318f004U,
  0xf9190af3f707d716U, 0x17da1e03ffddf9eaU, 0x5e8edd9e5f6dcd6U, 0xf9f90cf5e40ffde9U,
  0xc0ae902f80cef0dU, 0xf70b0825eedf1be5U, 0xaf50cfd02e4d0c6U, 0xe6fcfaf6fadffeU,
  0x4e0f0f9e3f30602U, 0xf2b05130c1124e6U, 0xef4de16feedfe0fU, 0x1f9e9e7020d100dU,
  0xea0efcdaf5e9120dU, 0x27ff2ff41cfd8bd5U, 0xc60b27fddfe41cU, 0x2403feffe40beedbU,
  0xdde2f3ddba1510f5U, 0x1e6eaeb012189d7U, 0xf5df0c2310ed081bU, 0x33f731200b41ede9U,
  0xdfd2cfb2aa180af4U, 0xeae4bfef0b24b78dU, 0xe405d3400bdd0106U, 0x401701f5e00003fcU,
  0xf70b0716001102e6U, 0x412e90ef2151c08U, 0xfd1a15f5f3eef204U, 0xf01f000208f107f9U,
  0x1308f501f41209f7U, 0xe15fb25fafd06ffU, 0xdfafaebea14e915U, 0xf6040606fe0cf7e4U,
  0x312f8eaf9ed431eU, 0x141c1d290af70b0eU, 0x41ec5e8ed0ff421U, 0xf311f60dfc0be6e0U,
  0xed09fef4fbf604fdU, 0xf4f9f4f9041fe5f9U, 0xfaff06c9060702f8U, 0xcb130a0ef91105d0U,
  0xf41905f4fef8f909U, 0x5fc0f010318f004U, 0xe020ef2f71304ffU, 0xe0e6f10e04240cf7U,
  0x30b18f8ecf70809U, 0x109f8fb0bfdf1f8U, 0xaf80509ff06fe13U, 0xcee6001b050214d9U,
  0x1407fbf7f60eeaefU, 0xe1e0f3d4f722fc0cU, 0xfc1104ab10050fe7U, 0xbd01fc1311ee0fafU,
  0x8fa01170406f5fbU, 0xf9f412f6070ce803U, 0xfb1ad2e0080300efU, 0xeffcf1d31102fdbeU,
  0xfcfd1ef6011308fbU, 0xfce209dd0515dffbU, 0xed17b22201fa2707U, 0xf609f4d606161681U,
  0x37cac3f003241200U, 0x9f3080bcfdb09dfU, 0x2d80617f3ec0cU, 0xf2e5c8dbfa33fef3U,
  0xfbf956f72e10091eU, 0xbef20e6031c2105U, 0x515ea0a040c06f4U, 0xf219131a0c2a0ef0U,
  0x1bf9c70f0f0ddc0aU, 0x8ea11fdd6fe212bU, 0x1dcb14bef4d6cbc2U, 0xdec5aece1d11160eU,
  0x3ae5abcbf71d1ff2U, 0xf8e8260abefaf6f4U, 0xff15c5e4eff40503U, 0xe68e9bbe0c0603dcU,
  0x120118e001f9ed1dU, 0x1dec24fb030efc00U, 0x1b10f0ee12040402U, 0x130506fc1026f7ecU,
  0x16e98f0319f7e6ecU, 0x20ed2ce5e4ed0433U, 0xf8bee692e4c3bbc6U, 0xfb9b81a5130d0b23U,
  0x43019fd6f51e01f0U, 0xf0f40bfad611e40dU, 0xed25d2f3e5021405U, 0xecc6bcb2200302ebU,
  0xbf71afa0b03fefcU, 0x16e830edf50722f1U, 0x50f12f6f507fcf8U, 0xe262d01f90401e9U,
  0x29d6bc1400f9f916U, 0x2cea01dec5d30042U, 0x8f313d1e2dcfdf3U, 0xfdb8caed402af64cU,
  0x13fdcef409f52f0eU, 0x211a170ff2b402d2U, 0x1bb701d200e6ab1eU, 0x121de7e0d605e32dU,
  0xecf2fafee4c2dd17U, 0x6160bf5eccbdfU, 0xc809bedcffdf23U, 0xfd0b1cebef12bef7U,
  0x801043b10f9f10eU, 0xfec20010addf9f0U, 0x1fdf35b9ccf1cc0fU, 0xc8d41924dfe20fd6U,
  0x11dae3f0e7e6e106U, 0x2c1d0409deb3f1bbU, 0x10de03f20ed2cb2cU, 0xfd1501e5f7ebf5f2U,
  0xf1f10af5ffb8f0ffU, 0xeae90efee407da02U, 0xfc0306bdf80c060dU, 0xe6ea16fc1615f6e4U,
  0x2f807fe030a0712U, 0xfed11f2e3f41ff2U, 0x28f6f2f1ff06e6f5U, 0xe9ddf000f100259eU,
  0x34c0e1f4faedd4d6U, 0xff05bc17be46f503U, 0xfe2ffdfcf3f12837U, 0xe510071621c4e59bU,
  0xee90bf603fcf5e6U, 0xe3f3f0dbc73de415U, 0x911d211090023f9U, 0x806ee12100f0b81U,
  0xddffe1ae71e17fbU, 0xe8dee4f7d80ffdfdU, 0xd41de160afd3cf7U, 0x14dcf4e216091cbeU,
  0xfa02f000e8100d0aU, 0xfffe0707f6ecfbedU, 0x50debf7fdf9ff04U, 0xf9fa02e7f61702f5U,
  0x2fcf617fe070b09U, 0xf305fc0e02e601eeU, 0x7fbeaede2ebea0cU, 0xeff2f6e4f00ffff7U,
  0x504e904130eee0fU, 0xf3fa061602ed08f1U, 0xae6fadadbf8d407U, 0xd8e5fee9ef0a0bf3U,
  0xfe0b02dff0fa1902U, 0xff05000bf90beb01U, 0xfb02f3e3f9f70510U, 0xedf9fcf20216f9f2U,
  0x104fafaf0fc0203U, 0x9fafc09edf7f5ffU, 0x6f409e0fef9f800U, 0xe2efff06f7fdf901U,
  0xf6faff0103fbeefaU, 0xfdf90802f7010104U, 0x8e50ad9f5feeaf5U, 0xeacf04f1f9f909feU,
  0xfcf72b1619f401f0U, 0xf00815fff8062c0bU, 0x5fb2381f108e8f7U, 0xe2ef1a0b0310f8f0U,
  0xef61f1703fef003U, 0x406fefeeb02250bU, 0x80111c1f7fbfff6U, 0xec001621ff0a11f1U,
  0xaff260c0d0be307U, 0xfbf8fd03f6101e0aU, 0x7fefbf901f702f6U, 0xfffe1602050211e9U,
  0xfb0f05212c0cc3fbU, 0xfbee0fd3311a0c15U, 0xa0506a5c80e1bdfU, 0xd80f432012c5fdedU,
  0xf20a0b3b03a6e5fbU, 0xfd140b0d3008160cU, 0xdfb3310dc170515U, 0x5fe7f53f1e0ca04U,
  0xba292d53bad4ef06U, 0xad20ea1a2c11f8c2U, 0x7ea384709241e50U, 0x2ff5470edcb809f8U,
  0x3ec1109ee1af4eeU, 0xf6f6e5e219140500U, 0x151117b1ba1a1800U, 0xc40b1e2e06f222e9U,
  0xf0fceb101cf70822U, 0xe019302c1f132a05U, 0x2a2018adfb25fe2cU, 0xa5eb2608010319e5U,
  0xc1a1dfdff1c010dU, 0x5052737221009U, 0x113403260f2e1c0aU, 0xf8fbe7e428f82197U,
  0xdbd321f9e602f2eeU, 0xe0facfd8d4e50ff6U, 0xd327e394d8ea2eeaU, 0xa74a020008cae197U,
  0xf7f31ceafd09f00cU, 0x11fdede91ad31101U, 0xfe17f0840d000901U, 0xca14fbf0f1f40888U,
  0xfcf73f951b0dcdf5U, 0x7fdf6133ee413ebU, 0xdcfdddb0f119ecf6U, 0xb5efd8cff2dd0d96U,
  0x13f61608090a2e03U, 0xfc13ede2d827fd2aU, 0xb905b7712bf22d0cU, 0x361ff90d1f23d8f4U,
  0x371e03fa0a081ee5U, 0x34b8e3d0e062df28U, 0xd730ca0f39fc20b6U, 0xdd8a6fa381404daU,
  0x47022e05192824f4U, 0xfdc90cd6ec442c57U, 0x3e2817e12119009bU, 0xdaf3e32d4ffe2004U,
  0xed1fe5fde8f22516U, 0xee080c18e10911fcU, 0xbfe5a1462f0e0b2dU, 0x2ef0ccc9f93de721U,
  0x181ccfbefbdf0b17U, 0x40a1e8f0fc0cceeeU, 0xe6fab4fbfdfa09ffU, 0x12c2c1d916f1d2dcU,
  0x6f6da0e25e82a43U, 0x8e555f707f72349U, 0xfcb2f9e0af9dd85U, 0xdce0fe0a1ef3eb1dU,
  0xfb1cebe01c2f27f8U, 0xf2f5233702da170bU, 0x9f3cc7ffb31ed2fU, 0x1bc0ebd4132a1735U,
  0xf007b0d8f5f90bf8U, 0x31a90fe42005d0f2U, 0xe218dbde0cfcf4faU, 0x10ced8e105fce6bdU,
  0x240edd120cde0c72U, 0x2ea07de0ed21e6eU, 0x19b55296e8060ecdU, 0x22f0104e4159ce6dU,
  0x7d7f0263c10e7cbU, 0xb80af40d0eee301eU, 0xbd35bd9ebfae8f7U, 0xf2254c2df610f70aU,
  0xd6dd3f32eee4f8d6U, 0xd702e9fb080ae7c9U, 0xc7e5fa2f17c00203U, 0x151d46ffd3df05f3U,
  0xe9ed16eee0e42ef3U, 0x2400dbfab807f400U, 0xe526fe28b2de11e9U, 0xd42f142820e9f6edU,
  0x11f1fa0a2af3dfe7U, 0xd60b0b15f0051a12U, 0xfcaf1cf7e30ed1d9U, 0xd30919f6faf207U,
  0xef1b02f1faf01e01U, 0xfbdde8e30411c7e9U, 0xcfceb1d19f4f1feU, 0x20f313f5f2f30e0aU,
  0x8d8fce2ebfa41fcU, 0xcb1f9d4e4158d04U, 0xf801d411ffee14d3U, 0x11fad704260411deU,
  0xde7fb1e31f2bbe9U, 0xe215280708ec4f02U, 0x6c930fffdf6b20cU, 0xdaf905dcf2f412U,
  0x6060ff8ed0b1604U, 0xec000a0a10f7dce7U, 0xf7f1b2250f050516U, 0xf0fe4de151b16eeU,
  0x2bfe35c5f90be4e5U, 0x188102ade804c21eU, 0xd6e00ff00c0703dbU, 0xf3e6f11b362af5dfU,
  0xd11817ca9ed32f0aU, 0xf22ed8030bca06c3U, 0xcd09edbcecf8f213U, 0xbc39fef5da0dc1cdU,
  0xd0f4ff1af4ac1ef6U, 0xdb25e301fed1f9f4U, 0xbbc7c510ea06ca33U, 0xea1cfaf4d317b2c3U,
  0xeb07060f0eb5fdf7U, 0x2b0701fc15dce3dcU, 0xe4f8df11d315f522U, 0xd80ef1feefe4dfbeU,
  0x1cc8ba04f1e2fedcU, 0xc41823f5151bc30dU, 0x6da29f006e41224U, 0xeeff8edf2f7fe1fU,
  0x2bf10714c9eafacdU, 0xbafef809f51ae3f0U, 0x2dbc73f09042603U, 0xfde0ebd3fce213f4U,
  0x8ed04fee7e520ecU, 0xc2eddc061428e8dfU, 0x6172a11ddf41ff2U, 0xcc180a30080814b9U,
  0x45df012c050efcfbU, 0xf6cc26eee91e302fU, 0x612164be06031ddeU, 0xeec70e3a21212defU,
  0x3f0718e602121500U, 0xf4d71806e7122f03U, 0x14100110df403d7U, 0xd081d3f8291421cbU,
  0x1f25120a1a05eff5U, 0xe5adeee8fb272609U, 0x120614c105281dc8U, 0xdcceeb2926311cc3U,
  0x150a17d1df1a0e0cU, 0x5fef4e51df4ed02U, 0xf61bd910240204fbU, 0x5f9010a1520eeU,
  0xf4091cedc7ff03f4U, 0xfdf701d5ff01ecfdU, 0xfcfcd8110df81004U, 0x10f5fff9fdf701f9U,
  0xcf83aeacc07d1d4U, 0xfa9eebb9e4f7e6e6U, 0xeaebd3110acc16d4U, 0x1ae703f5ef08fce4U,
  0xc130beae9120206U, 0xf8e705ea1600ef03U, 0xfe18e3fb1a1dffeeU, 0xfff6ff06050e0601U,
  0xf1607f6f6f6e815U, 0x14fb06fc050204eeU, 0x40bc6f607f406fbU, 0xd6ecf5fc150ffdU,
  0xf9fa12d0e00a11ffU, 0xeed1f429f204f4eeU, 0xfc04b01a0ce200efU, 0xcfafff3fe1b09fcU,
  0xe1204f80105041bU, 0x12e307000707dafaU, 0xf507e71a0304080aU, 0xef2f80608fb02edU,
  0x9080c0cfb030113U, 0x11ed150706faf301U, 0xfc05e6ff0afa0302U, 0xf4faf3fff705f7U,
  0xe40918e1c8080cffU, 0xedd1f60a0e06ebb5U, 0xf9fe812101eefeefU, 0x7fffddbdff50dceU,
  0xd5e50e35099bfcd3U, 0xefe0d8c9d11adc26U, 0xf20036e1a7f703b9U, 0xe603521d1ef0d516U,
  0x7f7072d0b0afc09U, 0xfd18fffc02182521U, 0xe71a0401cc0505d2U, 0xf91c00f61dede50cU,
  0x5ff49e62a240cf5U, 0x1beffa180b022c1fU, 0xfc0a0805cc1902e1U, 0xca18e70e042603d0U,
  0xe10101200c11f6e6U, 0x1e9fbd013ff0c04U, 0xd7c4f3f1e203efc7U, 0xc05e6dc09fae806U,
  0xf8fd12f6f5fafdecU, 0xaf71316fa0ff30eU, 0xf008ed11f1f806f8U, 0xc00ecea0714e917U,
  0xf81303ee0608eee8U, 0x8ef08110ffa13f9U, 0x209dffa0502ebU, 0xc7bfde02001a1b95U,
  0xfbe8401b2ad2fafaU, 0x1a1030c926a72b0cU, 0x18dd05aef101b2dbU, 0xfa074239e601ed2fU,
  0xee51c0f1cf5de02U, 0xf50507f104ec11ebU, 0xeff752baf9ecc8fbU, 0x8ded1d2ee20700f1U,
  0x60e25030f15cbfbU, 0xe9f214e604ea1b03U, 0x22f73195fef2efdfU, 0x8bc8101808062381U,
  0x5fdf3f8ea2a05edU, 0xe9f9f6e3f806d60cU, 0xfa1820e6fc0a1fe1U, 0xe11bfd0f130100f1U,
  0x130013fd030a1502U, 0x2fe09fe04f40bU, 0x7051b0c0803fd07U, 0xf4060321fe19060fU,
  0x50635cbe825ebe3U, 0xd8e4d1fc03e02818U, 0xf217c90d1cf522d8U, 0xfbdee9fc360818c5U,
  0x5f6eef4ea2a0de5U, 0xd605e3dcef0ddef9U, 0xee1703edf90128ddU, 0xe322ed0011eef0eaU,
  0x5eb100be3fd060fU, 0xebfe0212ef13f7feU, 0xf813f31409f1f508U, 0x1206f7f800061117U,
  0xf7ec47c0e908e8d7U, 0xece7dcfafb03250bU, 0xf80eb81e0cf21fdeU, 0xf6e7dcee2f1c17d3U,
  0xd2e7ead6c00c20d6U, 0xf220dfe8f00af9f3U, 0xc50bc22d13e22ee7U, 0x2a7fe1d9f902e202U,
  0xefd92c00ebe6f8f2U, 0xe71cedfdf3e91ceeU, 0xd903e616fcefe8e9U, 0x117fcf7e6fef116U,
  0xfbf334b01007c7d6U, 0xe6f4f7f302e535edU, 0xf007c5e6ee00d5cbU, 0xe5e7f5feeafa01b6U,
  0x30f4810611e3d209U, 0xefee28d8de1ffcf3U, 0xfcfd299bfdf5ddbdU, 0xd18b8690d405e314U,
  0xcdebc330f4c0e600U, 0x33fc1722e0ffc0e1U, 0xe6cb15efefeac628U, 0xecfad7c1ee2ade20U,
  0xa9f8eb01b5fb03f4U, 0xfbe6cfe8e721b003U, 0xd616c14825f32c36U, 0x17f9c2bf050ed800U,
  0x8f4cefdd301c629U, 0x50834f0e4f8d3b4U, 0x5bfa14932af9d623U, 0xe8aae9d3f1ee0fe5U,
  0xbcf91a2ee50c0522U, 0x25f11b1fe927c90fU, 0xca09e2190d11fc36U, 0x71305e22d17de0eU,
  0xf0e117fac50b3306U, 0x13d9e4ddbf19aa24U, 0xbd34d4102c0615eaU, 0x13ebe7e50735e0f1U,
  0xd16e4b608f5eb35U, 0x34e148f3c5f7c6f7U, 0x32f2b29731f8dbc8U, 0x2ec0f4dadbc91202U,
  0x2412fef801ea0209U, 0xc12541cd11afc2cU, 0x5eadccf0602e110U, 0xf6e3eaeb2a3bfb1dU,
  0x23f0fefad90c16f9U, 0x1bee2ee4c41af31cU, 0x1d2314f10d02f60fU, 0xdda5c50f293c08e8U,
  0x1fe020f00be7ddfcU, 0xf5defbe8f8eb04ecU, 0x14dc3be1d1d4dfbeU, 0xe6c83326f2f008f2U,
  0xecef05fffc02d70bU, 0xfce0f503e9d52cf5U, 0xb0624e6c4f4dfe4U, 0xf4b84319f5fe1b03U,
  0xe9d0d93fdfc381d8U, 0xc2e0e7dcdbf704dbU, 0xe6b739ead7dccdd4U, 0x13c44012e2faea0cU,
  0x340ff7cbf325ed01U, 0xedb804f30a05fffaU, 0x2d172ec8f2e6dfd4U, 0xebd12e1505011ee6U,
  0x1f1afcf40d231fdaU, 0x4e4f9ecf4131115U, 0x731f8f0ed04fbf3U, 0x60b2709170402f5U,
  0x190dfe1a0b1f061dU, 0x2fa01f10e0cf90bU, 0xa0bfbf0fff50be3U, 0x1113f70a0d0a0112U,
  0x250414e8de3e0ff3U, 0xee9dfbcd1121bf08U, 0x1603f9aacc0314cbU, 0xd1ee061d3deb38caU,
  0xc22f1030e3904fcU, 0xfbdcfae8062ddc16U, 0x1c07f8f6e3101c0bU, 0xeaf6e1e40f0f0ff3U,
  0xc1b0a030a120215U, 0xeef41f01140ded20U, 0xa1205ff0608080cU, 0xfed5fb44221b2aefU,
  0xc5e6eb2bfc94dafcU, 0xcc105d8fbefe5f3U, 0xd4f41116fde8dfbaU, 0x16f3180dbae0c30fU,
  0xfdf40e0ff6ce2103U, 0x499fefdfeffa8f7U, 0xe1dfd823ea0221d5U, 0x8000e0bd613e606U,
  0x29f40203eedfdff7U, 0x1091fdd7e8f9b1f0U, 0xd90ffffe1c0934cdU, 0x23f7183aee16c00dU,
  0x60be50f1cecff10U, 0x1b1b092d04e42af9U, 0x13f4eb1916e2f303U, 0xdd9f6d1df03f502U,
  0xf7191a08041117ffU, 0x2f2050b0326ef02U, 0xf2ffdf020f110505U, 0xf1f20fe4f83ce8e4U,
  0xc151cff1ff1f827U, 0x29e6f4f30cf7d628U, 0xea1413ecf90f18f4U, 0xf2e32d19ffd9cdf3U,
  0xeee80a1dc4d0f8dbU, 0x542c80804e43cd3U, 0xe235f1cc14d7f02eU, 0xe232f7ffe73effdaU,
  0x25172a0a07f30d1dU, 0x90bf5fd08e53c01U, 0xe700f496f81bd70dU, 0x96da0cfdf22eebd9U,
  0xf7172d033aece516U, 0x11f0071120f705e7U, 0xfff704b30218ddf8U, 0x9bfc2413edc31581U,
  0xd1cd0614ebb20ad3U, 0xdd1ff1d7e1edd4f4U, 0xcdce0535fdd5f143U, 0x301a2404db0ee024U,
  0xf2d907fac9dbeecaU, 0xd6f91981daf3b1e4U, 0xfebffe2a0df70210U, 0x30001914ea0a140cU,
  0xe5041ef7b2f5e1dcU, 0xe4c1d2bac8fbadcfU, 0xe3dfda3f0fc8f8f4U, 0x25110be8cfee08efU,
  0x121200010b1414f6U, 0xf1e20417f410f9f0U, 0x1514e605fcf602f5U, 0x6f9f9e7083201f9U,
  0x190c180c0e14ebf7U, 0x18d707060006e30eU, 0x7120cf4eef40bd7U, 0xfae5f9ef0701fbe7U,
  0x10b26f1f419dbe1U, 0xeebefef101fa0601U, 0xfb0000feeb05f9c5U, 0xff03f9ff01f111caU,
  0x27060f0d1411f0e8U, 0xf7f1351406e04b11U, 0x2b0cfece03f5dcdeU, 0xe6b3ee1014051708U,
  0x12ee27202009f2e0U, 0xedee0de608e83d09U, 0x150c0ce1faf1eae6U, 0xdecbe11d0ef21cfaU,
  0x1a08260b1523c7f3U, 0xefddf1edfa0e38fcU, 0x1502e7f6ecf2f6dfU, 0xc9dbfeebebe52490U,
  0xe8d98a3c02f31b05U, 0xbdf8e709af18ef21U, 0xe1380505f7f105d3U, 0xfdabacacee11ca1cU,
  0xbeab115d3ee1ef3U, 0xf300d631cc17dc0aU, 0xdd1ada1b38f5080eU, 0xad1928c0128ccf9U,
  0xf909a7d81d006221U, 0x380aec16bc1dbc3cU, 0xe74ba3e9370f0a18U, 0x10ea81b61e08f90bU,
  0xf70e0e2405e7f5f2U, 0xf8f2f413c132eaebU, 0xea1c221214e40306U, 0x12fbf907fc16e303U,
  0xfe0de217fae2fe1aU, 0x24001e16dd00c803U, 0xee0d150c0e0f282aU, 0x2119fbe80117e10dU,
  0xea170617f1eaeb0bU, 0xe8ee0c25fe0ffbf5U, 0xdcfe0bea08f3ede1U, 0xe80418f7f104e20cU,
  0x23c9f313d9241fd3U, 0xd7182b0ec60ff121U, 0xdf6f26ff9ea1006U, 0x2ffff0ebfe231b46U,
  0x20f4e113f30107daU, 0xe7131111d8ecf303U, 0xf1ff14dd00f8dee5U, 0xe9ede60c1336e917U,
  0x1c03ff18effd0314U, 0xdc0b181ee9d51615U, 0x1ff74d00e403d402U, 0xf8f32b6b0b1dfc44U,
  0x1d3e2b81a813fb4dU, 0x35f801ea16f5fbd3U, 0x1b29db0c110e1c0eU, 0xcdfb0512132302a2U,
  0xfe04f6fa1f1c001aU, 0x1dd8ef16ef0df205U, 0x1534c7121d0f18f9U, 0xff8e2d1050302d0U,
  0xee441eba22a0f07U, 0x11e59f06ddf3e3e8U, 0xf109c2482bbd31ebU, 0x2f2c0304e300ef10U,
  0xf9000fc1c0ff1a34U, 0x708c1c9050ec0f8U, 0x221d97152ef241f9U, 0xfb2ce5cbf00fd9c8U,
  0xf7f3f9ffcfec1d03U, 0xcf9d80efb01fae3U, 0xecf4bf1512f30309U, 0x21f6d7fae012e8efU,
  0x7f01c02f0014dfeU, 0x13f9af30f10511daU, 0xcedff61e13d712f0U, 0x2c19f01c050fbd25U,
  0xd2c8dad6d3e74a11U, 0x32acac8fee896e2U, 0xd0f9b00afee22f07U, 0x283cf3c7f91fcd1fU,
  0xd7d6f506e4d82116U, 0x172becf1f3d3dad2U, 0xc8d4031401c9f0ffU, 0x252af7e8fc17b028U,
  0xe5e0f3050db61d07U, 0x1648f808eed417ddU, 0xd5b6fdefffedd914U, 0xc1c0cf8fc088627U,
  0x3af5d7d30165eeecU, 0xf8c7e41fd9f5100cU, 0x2251edfe0411feceU, 0xece0d40c2e1a38f5U,
  0x701d100df1fd5e7U, 0xe714e2e6ecedf8dfU, 0xbfd19ec0ae5e3c0U, 0xc02e1eff4e52e2aU,
  0x1e5ee211016d8e0U, 0xf3f0f905e7f31402U, 0xcdab350103f2bdf5U, 0xbf8f9d4def7cd27U,
  0xfef4d218c017f3f6U, 0xe0f8eaf7c90af6f4U, 0xf22ef018fcecdfdfU, 0xeedacbe3f20ff4fdU,
  0xfbe1c41ec7f5f9fcU, 0xb31f9fae2dfdbf7U, 0xce8220c25caf70bU, 0x200fcdd3edf5031dU,
  0xcbe2ba0ee9b7e0ebU, 0x605f800fb00d916U, 0xc388ee0dff07e11cU, 0x6fdcbace104810dU,
  0x1da040bb12a14e9U, 0x8f1d1f8e602c5ffU, 0xb13be5a16f51b10U, 0xf0efbfbf5f801f4U,
  0xeef105f713f3fee8U, 0x1bf5eef6f909e0fdU, 0xfbd1f81013fdca08U, 0xc07fff7f70ee4f7U,
  0xfadcdc261bb3f6eeU, 0xdafb0010f0f0ef60U, 0x25e73af0ee02fcf5U, 0xefe9f31b2709ef32U,
  0xf2e82f0efdf607f4U, 0xce10f86e6238effU, 0xb0935e2f5f119b9U, 0x41344360f0607f5U,
  0x8d3351bdfd7f0f7U, 0xfd0213dae5130df1U, 0xbdc21fcfae5f1d8U, 0x15fa6a53ed1706f9U,
  0xf7e57fdeea05f4e6U, 0xe5aee9dee62202efU, 0xfb08e551ff0322f7U, 0x3db1b171a0520d6U,
  0x160ff103f217f712U, 0xe2c7f8d20522c80dU, 0xa0012e0f2ed07d6U, 0xe2e302effe1b0ed7U,
  0x1707fe0aeff01536U, 0xcf70e17fef8fa01U, 0x304fce90de608f9U, 0xebeeddfdf7200208U,
  0x31b0209fc1103f4U, 0xf2d80710f7060af0U, 0x32ce21a250311f1U, 0x8d3c8f91114fdfbU,
  0x4f6eee4f0181205U, 0xcd6da07ef00b619U, 0xfe16f418ebf1f6d5U, 0xef006edebf1f82cU,
  0xfcfbfffddbf309efU, 0x8ffea0ffef51313U, 0xe512fb1205f9f9ffU, 0x1be9f8e8fffcf421U,
  0xdebf4fcea0d1417U, 0xf0e5d814fbf3071aU, 0xf911f00bf402ecfeU, 0x15e202f60106f427U,
  0xf7eafd04e7c13ae1U, 0xe921f416fb1b0b01U, 0xc5cee86108d90418U, 0x421bcab4f61fe137U,
  0xc15f2f0fbea01daU, 0xf3d9eae51717f216U, 0xbfd4c10a101ee3cbU, 0x17ced4eb1d08090cU,
  0xcf0b00a029d4141bU, 0x10dd21c52efedc10U, 0xee0bb990e11de5e3U, 0xe1000aee01c4fac5U,
  0xf4f0470413ff1f02U, 0x2b09200612fc2deeU, 0xedccd21bf8fad718U, 0x1b08caf9e73dff19U,
  0x19051dea2725b6edU, 0xead913f21fcc2327U, 0xe102398bc20cc4bfU, 0xe6e124491d04d509U,
  0xe1020afd3dd805ddU, 0xe6e611f72a01eae4U, 0xd20831f2f402f1e6U, 0x251a7f17cd28d5ebU,
  0xe510e2e8eee9dde8U, 0xeef604ee1eebfbe1U, 0xeedd20bdbc0fbaeeU, 0xbecb154e0c2cce05U,
  0xebeacdfadee6f8d7U, 0xd0fef0141be9bd10U, 0xe20d2beaa4dd23e0U, 0xf7ed3313e21dd709U,
  0xf0fccf1cd90634f4U, 0xe33d0d1500f3d4e4U, 0x33403450fde291aU, 0x122c1df5e425e22aU,
  0xfdd1f237032af2e4U, 0xb3f2eddadf0c2a17U, 0xf93446aba6000b9eU, 0xdef41b1a1fdff610U,
  0x18de0c090903f0daU, 0xd206fe0cfcfb3012U, 0xfefd13b7c8fd0af4U, 0x1210d1f0809f906U,
  0x1bfdd6123800fb18U, 0x3331315f9e209f1U, 0x22e315d0ceddf6eaU, 0xd1060ff604220607U,
  0xeefaf30bef25e300U, 0xdadad7d0e42ecd0fU, 0xe01c0cebe7120ce8U, 0xcbfff7edfbeeeedbU,
  0xe30518ed0ee4fe29U, 0x1eebfe0df715defbU, 0x2e6dfecfbfbebfaU, 0xfffdfd13f202e9d5U,
  0xb0df0f7e0e50424U, 0x25131c0fdf0fc0d7U, 0xfde2dbe20ee503deU, 0x1a08fbe5dd12f817U,
  0xdddc0208e339fbb3U, 0xc41d81d6d817b8faU, 0xd41f023605133c07U, 0x13430cf51af609daU,
  0xfdecfc08e1000bf5U, 0xe9f6dfe00610ab06U, 0xfbf80e4607ee0120U, 0x3136100f0ce6ff01U,
  0xebdcf1d3e5ed31eeU, 0xf7e7010dde0b8aceU, 0xe0e3f34e13d53229U, 0x1c4318fff105c3f5U,
  0xfde6cb0bdb03d1e3U, 0xd7fbfa0f1af2feefU, 0x22ef41d5b7fdfad9U, 0xf2d1382519f410f2U,
  0xe5d7052ac8d807f6U, 0xd3fff9fafee9f0e9U, 0xf7a7051bdffcecc2U, 0xad14e14f70ff101U,
  0xdf0b0cfcbefcf7e1U, 0xd5e3cfed1cffbcceU, 0xeba1ea35d310ed12U, 0x1a0316ebf6ec02edU,
  0xdf3c4fcec3502d8U, 0xd1eff8d61118000eU, 0x5081fd9e9fa0fdcU, 0xf0072a0f240d0a03U,
  0xfe82506e91a0c13U, 0x2101814ef271c1bU, 0x30b160cf611fbfeU, 0xce526321c1f1004U,
  0xafe45eaee28f1cbU, 0xfae7e2ec1c02f1faU, 0xe8ede313f31803f5U, 0x7de19ea2bf214e9U,
  0xecccd3f6de1219efU, 0x405d2dae2eb060eU, 0xda1ccde8fbd124c8U, 0x2a7fe8e0ffeaf506U,
  0x6e127090d00efefU, 0xee22051306e230f4U, 0xea2b15e014f7faf8U, 0xf32600faed0e1d28U,
  0x20f740ee140ebde5U, 0xebe8fa0020ca3821U, 0xeee4e7d5eb23d9e4U, 0xf6c1ebfa03f7f9f9U,
  0xde0713f3e1c103e0U, 0x91b11f619d1efe1U, 0xf1e413c4d0eae606U, 0xe825372aee2ff508U,
  0x1cefdfe0fcea1017U, 0x14121dfc0cea0ddbU, 0xf3faeccdbdefdc12U, 0xdcee11f6e71fe1f9U,
  0x13f6022af9b8f52aU, 0x1a18141c12d003e9U, 0xebf107f5aae1db0aU, 0xf5091e04eaf59924U,
  0xf3f2f008efc0d7ffU, 0xe43108ef14e40af7U, 0x3ce3084c4dcdb05U, 0xd20f3411ff07041dU,
  0xf8f9b6fd07d0f20dU, 0xff14db35fb050a09U, 0xdecfedddd0fcf41cU, 0xe3caefb4eb07b808U,
  0x2f22d03e0f91dU, 0x340618ed0ae2221dU, 0xed0bf9d0f006fa05U, 0x8f2ee101100de2bU,
  0xd80a1e1113bdb4e1U, 0xd5d6dd24f8333e07U, 0xdaf01281d9fe11d8U, 0xfd0a4827040ae3e7U,
  0xa05df0613d2062cU, 0x1dd8082903302a19U, 0xe8f3e112e6081cffU, 0xf6fcd5cb0b14c7ecU,
  0x21ff0a0625f2180dU, 0x110c1f0bec022b3aU, 0x17271fd2f30ffae3U, 0xf9f8e33c0e211030U,
  0x56192cf6f87fffa8U, 0x940adb5757dd3bddU, 0x1a222746fe123420U, 0x3344482f06243c13U,
  0xfe1627f2192021efU, 0x28e204f67a54e00dU, 0x1af84bf85d2d08U, 0x283d0600f0ed07faU,
  0xed1e39d10b2949b6U, 0xfbf1f6a457ebd249U, 0xd8320153ff3348edU, 0x1d5c23344b131ae5U,
  0xfb203b0c0e0defe3U, 0xeef414f83e26fad7U, 0xf6fe1d44ff294508U, 0x1c495e73e701fee2U,
  0xca2544ca0cf4c206U, 0x42e511e54a23cbfbU, 0x4da04f8eb46e20bU, 0xf31d1441f7d004e6U,
  0x71523c3141806edU, 0xfdff13e76beefc0bU, 0x10f2441d73f2e0cU, 0xe932353a0a101fdbU,
  0x10ea45f1081ffec7U, 0x325030358302109U, 0x67f2226a0f344a24U, 0x1a554a62fde45dffU,
  0x8fe23dfe700cde0U, 0xe4f80cfd62331100U, 0x15e1260fd22e0531U, 0xc2c487500051c04U,
  0x8fb2de61b2914d6U, 0xce00e095115f936U, 0x15ea285ced291d26U, 0x263451522ce73e10U,
  0x1cefd7db0319ec0eU, 0x6e80112e1f015f1U, 0xa0e10a7c702e7d4U, 0xc9baf00110f7f1e6U,
  0xf5f4b206fce4fc0dU, 0xafa1c2bf9e6f912U, 0xe5100ca8be1204efU, 0xe7f604080507bc05U,
  0x200bf4f1231c22eeU, 0x6020a17fe0f0636U, 0xe1d12c7eb0bf1e8U, 0xcfdbaf3b312029f5U,
  0x10e6f5f6091df5cfU, 0xe0cae8ebf40bfbefU, 0x4181e81cfea25bbU, 0xd1e22b28150d05deU,
  0x5f9ec2006e814f9U, 0x409130a08071307U, 0xfeee18e3d9f21affU, 0x10362507043fedf5U,
  0x3ed0cf0f5fefc09U, 0xf90d0321fc1522feU, 0x8f817f6fefefcecU, 0xe7f8f433fe1800fdU,
  0xe5cfebd1cc230ecbU, 0xb7fdcacadcfcd3e7U, 0xdd3f01a7eff032e8U, 0x64316c807f1eb94U,
  0xecc001f2e5dcf7e4U, 0x825f7e9f4e710ecU, 0xe509c4cfebdc010bU, 0x1748f2e2e60fd50eU,
  0xf7c4190607e3eceeU, 0xf1381ef4ffdf08beU, 0xf1ed13b9e4e0c8ddU, 0xc610210cde04050dU,
  0xd2e61517e7b4e8dfU, 0xcedce0a1de21dd07U, 0xf2154dd6cff919b9U, 0xfcff7f4b08eee4ebU,
  0xcff9f41bf2c9010fU, 0xfffcfae8e903dd08U, 0xe5f4002ce4fe0ef6U, 0xf50225f403f7ddf7U,
  0xfb03f50ee1fb1501U, 0xe3effbeb0afce820U, 0xedf0ec06fa0411faU, 0xfef4fdf614f7f201U,
  0xcbf3ed0feae80cf8U, 0xda02d9ded51ec314U, 0xed191bf704062fdeU, 0xef282ff00707f6faU,
  0xfd06cd00e4f40b08U, 0x700f319f621d802U, 0xfd02e918170ff715U, 0x107d5d00afee708U,
  0x110be105fe1b1c14U, 0x15efee0808e0f310U, 0xe718daeffe05fd09U, 0xf004dee516f0de08U,
  0xacefff16f9d5fadaU, 0xee12daeeeb19f30bU, 0xcc0518eafafe15f3U, 0x9302d070802e8feU,
  0x604e80b0cdb09faU, 0x90df1f9ff1a1006U, 0xd7f201f6f6fdf5e7U, 0xb0a01eef913d314U,
  0xfe10efff09f9ff19U, 0xf5f3f3fb13c91621U, 0xebf204d8f0fbe2f2U, 0xf8f3ece5080dd713U,
  0x810bdd1b27c9ccc7U, 0x6d5ffb9f02edb0eU, 0xf8442bbfc02139c5U, 0xd42360491cabf6c6U,
  0xf8079915dbfc33ffU, 0xcf1b050bde220326U, 0x211f1dc1f4da03f3U, 0x1f30c0f14f711faU,
  0x26f4b21aedff301eU, 0x1a4d2a43cf0429f2U, 0xcf437e406e5e7edU, 0x2201a2bed01f74cU,
  0x8b08f2f9ead9ecf7U, 0xd7fdefb7bdfbdc07U, 0xe219e0d3e0e315f0U, 0xdf392df8f2ea04f5U,
  0x13e6dc0ebae4110dU, 0xf32010fdd028f202U, 0xf336d8bd23d947ecU, 0xef2cf8bf093cee06U,
  0xc2be73fc4dcfcffU, 0xfd3c1733e8dce9bdU, 0xb20f2c1f8c9f8fdU, 0xb031fee3d4d2011dU,
  0xadfb8dd4eaa90fceU, 0xf306df09b5bdb8eaU, 0xa2070dcca8d9dbebU, 0xf90dc5d9f309b043U,
  0xf6f58300caad0cfeU, 0xbc15271eec8b0fc9U, 0x8afff9b9f5cd03d8U, 0x32be9dabe039355U,
  0x101dcd2bf38ff63eU, 0xdcfc103be4d818dcU, 0xf9e928bbbbf2c4d3U, 0xbfd8f416c0b8eb4cU,
  0xf91e13efdb12122cU, 0x5030a0f02fefeedU, 0xfd0fd3fb13fd0d20U, 0xe1f5fcfcfb0feef6U,
  0xed1de0f1ddf20421U, 0xef505f10609f40bU, 0x1f7c7ef05fa08feU, 0xf1e7dddd05f1ecdeU,
  0x818ee1d02ec6f2dU, 0x17660a1dfe05eb40U, 0xb4212e8fdf40748U, 0x1c54ff0a21fb132dU,
  0xf31be2f9f0071d2cU, 0xfbeae50aef0d03eeU, 0xf104e6fc26f11413U, 0xecdecee2f4fcf7f0U,
  0x410d3ddd9f92d2dU, 0x2ffde701f50fddfdU, 0xf606c01f34fe0f1eU, 0x1503acc208e402e7U,
  0xe906cbf7adc90700U, 0x11180a0af60fd7f4U, 0xfbd3d61b1add02faU, 0x2415b9dce509e910U,
  0x37f6eef6da394035U, 0xead9ed140810f819U, 0x550ff67f2e042e07U, 0x1dbbd9e307d52510U,
  0x306f3ded2111ff8U, 0x802e2e3101cce06U, 0x4ffec0a22db0af0U, 0x2702b7e0020204f4U,
  0x503eceff3fb38f3U, 0xef11f2fdff0c02f6U, 0xf402fe1804f608f7U, 0x1315ebd1f311fcefU,
  0x2620fdef1046edf0U, 0x180bf34421d03412U, 0x1a00fdf3010d0c23U, 0xf5000d0eecff270bU,
  0xf52602060403e505U, 0x2151f1b0bdd14ecU, 0x3f1f6cef0f5e0faU, 0xea0207fbdaf70619U,
  0x71a101cf2ecff22U, 0x111a102915fffdf4U, 0x6effd03fffd0419U, 0xb1b21edd600f119U,
  0xe71de9fefaf2db1eU, 0xfe181afb20f2ebeaU, 0x18f507ecfb0714ecU, 0xf0defefce8ec23f8U,
  0xff2cd1f708e0e32dU, 0x1a0719201af5f2fdU, 0x14fbf7ee0d0ee31dU, 0x6cef3daf1f7f308U,
  0xf414e7181addf126U, 0x2c08331f0d0d01f6U, 0xfbffe5ed0411d6feU, 0xf2dee3dadde8e40dU,
  0xf90ef0e507f3fc17U, 0x2701090efae3d002U, 0xf713eb1609fe1107U, 0xf12ef02e9e5dd20U,
  0xe19f9ef24d7fd07U, 0xbf02b1a02e6dc05U, 0x1ec02f60afbda06U, 0x10e8f6fee6ebdf1dU,
  0x18fcf7ff09ecf511U, 0xd30a1013fcce032dU, 0x30cd50f1e107e4f8U, 0x23e915481f28ff7fU,
  0xbef0e332d9c60eefU, 0xf11e0508e9c7fdc6U, 0xd0c4eb0f13cdce14U, 0x1bfef4ebbd00c71eU,
  0xecddd20eb5db0910U, 0xed18e2ffe0e8d4e6U, 0xefb0f9fcfcecd907U, 0xfee00f9d80eda18U,
  0xacf0c3c89fdc2709U, 0x412df0ae3ee9fb6U, 0xe2dc8f46f5cefa29U, 0xbd5bcaee506e7f2U,
  0xf1f7093425fbed08U, 0xbeed51aeafe2000U, 0xdff129e710f9e6f9U, 0x14ec1b17fbfdf107U,
  0x3f31c16f31016ffU, 0x13e2f0eaf719fcfaU, 0xfde10aee02ec04e0U, 0x15ef1afa010909e9U,
  0xf4eeffdab40731e8U, 0xe8c7beebe80a81eeU, 0xd8fad122f9f11f13U, 0x23d9daf9f8010dfbU,
  0x270fff2be6291514U, 0xdde30d1e09261008U, 0x2e29392605f4f701U, 0xcf302e18eb29faU,
  0x19142ff6cf231e10U, 0xfdcde3f5e520e3f4U, 0x153af4160ae82e02U, 0x1bf0f3022e0321e8U,
  0xf1ff04d7ef171900U, 0x490e0e40027ac04U, 0x30aee01090518f7U, 0x11d8ed012115fb02U,
  0xd5d7b0fcfba623e0U, 0xe71e1ceebaeeb90aU, 0x8f81bcfeceae3fcU, 0x5c5adc90828f925U,
  0xf0f3eef4119d161dU, 0xb010c0ddaf9ef02U, 0xbad50236e8eef309U, 0x1ef00ddfd348708U,
  0xe8ebc103f0adfff5U, 0xf3fe1415cce2e7f1U, 0xe3b9f5c1ddf7dde8U, 0xfa97a9c3f456a91aU,
  0xf5ea3dfffcfedee5U, 0xe7defa0ddbf64704U, 0x1c092bf8e2f3e6f3U, 0xfa03583a0301f90aU,
  0xf2ea471bf981d010U, 0x29e11010cbf83eeeU, 0xf111df5faefdbe9U, 0xcf07523dfbe6dc00U,
  0xae60a0df1e5ebecU, 0xf4171800e3e70ecdU, 0x6fd32cfc6f4b412U, 0xcdec1103ce1bf5fdU,
  0x14ebd10a141205fdU, 0xd6c716f3d81ffe02U, 0x262428dcf4fe24e1U, 0xdca4b9fb131f13f8U,
  0xdf916d3010c05feU, 0x1cecf2fccf03faeeU, 0x161106fe00ef0defU, 0xd5f908140a1903f9U,
  0xbef8fd4fc2b1b17U, 0x10e5061fe9f8e0f7U, 0xef0e4e1e9f900ecU, 0xe18696a52818fb17U,
  0x10f20a012c13f1f1U, 0xf003e40fe8231108U, 0xf315edf91a021dfdU, 0xcbeffbf3feeeecf3U,
  0x290c0af6f63302f5U, 0xf0fdedf3e820ea0bU, 0xec38f22b22131ce1U, 0xf1ade21111101fdU,
  0x410a2ebc1c401bf4U, 0xe2d800f208fd1920U, 0x1160f9fb0d1627d8U, 0xc4eac83844003ff2U,
  0xfafaf03925d9fdfcU, 0xa0df014f7f62018U, 0xd7f5e5eefc04ed08U, 0x317d4d5ebdfb927U,
  0xfb08faff09e71fffU, 0xce9f71f00f7effdU, 0xc0fbe6e911140fe6U, 0xff2afb13f509ce08U,
  0xe0b0bd60c250402U, 0xeae808ed0af1e8f1U, 0x81ce8eefe0f00e5U, 0xdce7ea021d061efaU,
  0x14f5c40c12d1feddU, 0x132c5037f9a6e2eeU, 0xbad2607eff58131U, 0x11f5dbf1d508ea3aU,
  0xcbf905040899ffeeU, 0x40f1b04efe394e0U, 0xedbe1ffee101ab1cU, 0x4000813f52cbc18U,
  0xcd0df4ed04f21e10U, 0x19ec08e906fadbf5U, 0xdfc0e5e1001bdf04U, 0x10c000300f7d8f8U,
  0x92eed507fbb002d2U, 0xeb0df1c8da02ac06U, 0xc7260ceae3ed15d1U, 0xc270af701eddf0cU,
  0xe6f3c016f0da0ae3U, 0xfe1e2f10ef02cb02U, 0xf91403c7d4f0dc05U, 0xf5f9dec2dc03ee1fU,
  0xdef9d50dffd10df9U, 0xa2a1124fdedbc08U, 0xc9e5f215e8fdef38U, 0x1809ffd9f3f2bc06U,
  0x81daec0bd9c51fceU, 0xd21ee8fed701f703U, 0xc626f30cfaeb11eeU, 0x135218e70de6ec15U,
  0xf3e7e804ebea05f8U, 0xfb101516edf3e6feU, 0xe3e0e2ccc70cd015U, 0xf7f0fce5fb15cdf5U,
  0xf00508110fe002fdU, 0x10ec050b0f0ba107U, 0xed08ed28e414f320U, 0xeeec12fd0d06f1dfU,
  0xcfec041308b314eaU, 0xbfc1319e7fd0b08U, 0xf1dc1a13f4ebf3f7U, 0xb302b1006edd421U,
  0x606f30b26dc07f7U, 0xfef50513020d1f0cU, 0xf7fdfbf0c81ef809U, 0xdfedf3e8f5fe01f6U,
  0x61a45fe081d0efcU, 0x6cc02ef08110233U, 0x1d1f1b11132b2208U, 0x1ef28302222320fU,
  0x2fa7ffffbb7aU, 0x1da200002113U, 0x3a4dffffedb9U, 0x3fe600000a6bU,
  0x1005ffffa16bU, 0xffffd9b7fffffbd9U, 0xffff99b6000012d4U, 0x150000036f4U,
  0x1f1000049d7U, 0x12aefffffd6cU, 0x18a5ffffeec8U, 0xffffdfacffffef59U,
  0x56800004414U, 0x3652ffffda40U, 0x2a4dffff905eU, 0xa6100000c63U,
  0x361a0000592fU, 0xffffa846000019f0U, 0xffffde49ffffa445U, 0x23bd000022c4U,
  0xffffebcafffff8afU, 0x3090000726fU, 0xa090000045bU, 0x10aafffff2e9U,
  0xffffe4e200003a1fU, 0xfffff21c000004e5U, 0x3cbffffe95eU, 0x19bbfffe2547U,
  0x4f1600000a79U, 0xffffb472ffffc985U, 0x813a00004c5dU, 0x823fffff822U,
  0x3e03e4f2e5fc06f5U, 0x19ef19f51aed02e4U, 0xceda04072b001fd7U, 0x908d8ab0b1538f9U,
  0xf0fc1f28dee4f604U, 0x95220724c3fef9b6U, 0xfb18c6f4520642ffU, 0xf4c5ba47fddd0321U,
  0x2813ace0f023200aU, 0xe6f1dacaf9fc0df5U, 0x96c8f2f816f80409U, 0x20515b0d40b2bf1U,
  0xdb152421b5f72133U, 0xb41a0ad1f410ad06U, 0xee03ecfe440d1b00U, 0xc10db07f8dff20cU,
  0xee0ed3eddd0f38ecU, 0xae8e8e00bbd40b8U, 0x8c8dbe71cda2036U, 0x28370d06f0081708U,
  0xf11f69100082214U, 0xfff015e507edbc30U, 0xe6c803180c0a0114U, 0x2023faf2f2ebc82dU,
  0x27ecfefefb1ee7f6U, 0x10fbfd0409f50b14U, 0xc6cbce0e20e602c1U, 0xf1fae9d70c0e25f0U,
  0xdf2ffa18ceed0b1cU, 0xf72be12acddce1d7U, 0xcf1dcb101bfb41fdU, 0x107d31b12211eebU,
  0xf608cf13101c0807U, 0xdcfbb9dadef12b16U, 0x81b0d61efbfaf2c7U, 0xfb2016eff40f32e1U,
  0xf221f40ac0e2170bU, 0x2e23ecd9ee10c130U, 0xbf03030f2f010804U, 0x1a07e0e2fc1e0ae5U,
  0xd701c20ff8f32b03U, 0xd0029cc1bcbb30f5U, 0xf9c2bf2c02ecf3d5U, 0xed2c01020ced13f4U,
  0x3c2ac3a2f1d32301U, 0x31f50500f0e2e744U, 0xe4da2a2ae406f014U, 0x2f0dffd6ce01e806U,
  0x3ee7fa1d0ddec6eaU, 0xe910262807e22bf7U, 0xf0e1be01ffe2fed3U, 0xde400000be70de7U,
  0xbf31f425ecf8390cU, 0x360dd23ec3d2f5f0U, 0xeee0ec0dfad02418U, 0xf208e812f71b2edbU,
  0xc01f23d27c9eae4U, 0xbf1deff8e4f20feeU, 0xc3d6cb2114eaebb5U, 0xc0b080b05f9f1faU,
  0xfae90715dbe92ee5U, 0x452ff0f0ec10d348U, 0xfcdb0528e9d3131eU, 0x51dfcd7ed1b12e9U,
  0xf1f8eb1905ce20e9U, 0xb01ba8ebb6cf03edU, 0xf9eab52d05f2faa7U, 0xe026131127e8d5f7U,
  0x55e7e6d0f1ce1d00U, 0x3b17f1f9ed07f54dU, 0x10d0201ec8fbea21U, 0x121f26e9b6fff716U,
  0x71628ef2ce0011dU, 0x26e114f4e112bef2U, 0x17ce1d272c16f3e3U, 0x49fccfe6d5da0c0cU,
  0xd1eb19b70219e331U, 0xd20bd2d3cf03bee8U, 0x372bf5f7e6da22e9U, 0xb2a82c04ffca0003U,
  0xb6e8fbe0ffcebc17U, 0x1ee6ff27d90815e1U, 0x27f92e1ee9f9f41fU, 0x4ce7b70ff6bf2602U,
  0x13093996100bd625U, 0xeb021119f0edbb3cU, 0x23283f00f9022cf5U, 0xe3a7103917b30f18U,
  0xac0ab6f7c7c4dc17U, 0xecebe6d7c0811fe5U, 0x13ef05fae2fcee07U, 0xefe7db18e2e21ab8U,
  0x351d41d6d01feef6U, 0xfd1f51eff7dab52eU, 0xfff56fae8e72112U, 0x23fd392e01e9e701U,
  0xdd0b0afb16122be7U, 0x1bda1cd4df2cc9faU, 0x15222d1e27fa020dU, 0x2b0ee7eaddeff3e9U,
  0xe4fee8f324eb0811U, 0xdf04defbe2fb51e1U, 0x66260404fa1fdbdbU, 0xf0f4ece210241305U,
  0xdff6eac20f1a10d1U, 0x5cdf5fede18fbe2U, 0x353b3002f7d42928U, 0x45fefbfbfdf50adeU,
  0xe412130030f0ce18U, 0x25fae82ce6031818U, 0x4f1d1802e941e1ebU, 0xe0f5edf411dc3a14U,
  0xf412d5d9c6ef09f8U, 0xf9d0e9daa4ea26e6U, 0x754d04f6f2e43214U, 0xafa13300ef906feU,
  0x92d27fdfceeca0dU, 0x17fa1b3a07031e2cU, 0x37ea3914e92813feU, 0xe6100c0ddb012efdU,
  0xcf21221fdb0500cdU, 0xadbcbcd372bdf19U, 0xd9f9e2052ce8dc3cU, 0x8dfeddc0725c1ddU,
  0x17fdffd82aab4c11U, 0xe7f0200eefe841a8U, 0x740eeaf863efc9edU, 0xf7f81002372afedcU,
  0xf0ee0defd123f899U, 0xe7c4d0e92221080aU, 0xf539e2e5fec31e26U, 0xff25030c190ae4f0U,
  0xeaeb120d1fd3ed13U, 0x1acdf31cf8e04ec3U, 0x4604d028fa07dce9U, 0xd92a19031e0a2812U,
  0xdf1f0f1b7f003b9U, 0x1d6c9cbc61f1106U, 0x2a3eeae9d6cb5814U, 0xce040b3ce8f7f833U,
  0xdd011efdf1f4b215U, 0x23cff9ff0ae33ae8U, 0x33cbbf1cd0d7f5faU, 0xc9234ef5bf0305feU,
  0xbe0d471a27f909ffU, 0xf931c0da0715ddc4U, 0xdae8d03cc8fcf4b9U, 0xffdf1de2c9c43060U,
  0xed1102eb08ed193cU, 0xee1b39efdc08110bU, 0xe9d80e07d2c300d7U, 0xbe7bfe1fb9a1f22U,
  0xd04a211626ee18e5U, 0xef66b9fbf00114e3U, 0x9d4150bfae0e6U, 0x14ff0e13f005e633U,
  0xfcfcb0cb08f50ee8U, 0x1f08de0fddd71e33U, 0xe7f9fb1abdfaf6feU, 0xe3d7f8df271dd224U,
  0xe01e1f00240507cdU, 0x12451218b9035b14U, 0x1accd2602ae7d4f1U, 0xe143050e1fa28e4U,
  0xf3cfcb3a2906eaffU, 0xf516f2ffb70a0923U, 0xe421da1baf1217c5U, 0xc03f905114df052U,
  0xcf20e2f5cbf22f11U, 0x7cdff00e3fb17d9U, 0x16f1f0fdab02e5b0U, 0xb0013eed0e727f7U,
  0x23f702a7f81e3747U, 0xe2d118ddfdfe110aU, 0x13de5306ccfd15d5U, 0xcdfbf7c80add00deU,
  0xe42df216be082114U, 0xecfbb3fff8fd30f0U, 0x1d34e3e3f6050cc4U, 0xf2e5181cdbfe13e1U,
  0x1ed9c3b8b809440cU, 0x8ccdef3070f3424U, 0x1ffc44fb0c071be6U, 0xc11703d01a3bc9e7U,
  0xa21fc1cd9122afeU, 0xefefdbedd5035923U, 0x4618b0ea0931dbc3U, 0xf6a53242b8f11bbfU,
  0xfcc0ca0cef0b1beaU, 0xe1ecdceee62b1704U, 0x24120f08011727c5U, 0xc236fae4e465c0feU,
  0xe8d2deebadc8e6f0U, 0x2cf54506dbe50105U, 0x20d1bdaf5e8e50bU, 0x1b2ddbfe1d12ef03U,
  0x19f62581120b1829U, 0x2bac16e515492c18U, 0x30de43ed24231131U, 0xb8fb60d01328d1f4U,
  0x408f6d6a8200e25U, 0x3ce6c6070a350ce7U, 0x1822c3a518fb3e16U, 0x8f3e70616e0ebbbU,
  0x2ef434abe8173909U, 0x19d4080b022f36ddU, 0x21f945f52f162ae3U, 0xb1fa220f0240c1d9U,
  0xf01feffad2252526U, 0x44ecbdf9ec63450dU, 0x4244c896272f0b16U, 0x2ecf0301fcd714a9U,
  0x1bf70fdf161612e1U, 0xd7f6d0fc0f1f2aaaU, 0xf7db5c022c4d17dfU, 0xe91833f0db18d1ecU,
  0xde290be104200214U, 0x4f80625d1e608ffU, 0xb3f30151e3093e23U, 0xd1f815e0f1e00521U,
  0x29f0a9b6afbfd0c0U, 0xb73508a4f228f2fcU, 0xf60832da1df401c1U, 0x201cd61f15171e37U,
  0xe5180aefd92f12e5U, 0xfc1cd10dd8e75512U, 0xdc12ef1f11ee1536U, 0xe2130cff08e9f909U,
  0xae08195c2aecd82U, 0x9f6f7b3e5381e26U, 0x23fc37e7042ce5d3U, 0x9e604ff2867f53bU,
  0x8fdf2fa8328e8edU, 0xd235d013f5067124U, 0x2010d735070af7f0U, 0x2003144b2200fcebU,
  0xef7b3c2c7a408b0U, 0x19ef27e6dc271120U, 0xae6f811fb4b1bd8U, 0x18e025f1eb40f021U,
  0xe1705e40b091f21U, 0xebeef037d0f607e7U, 0x8ad03a2c00056dedU, 0xd02b12cdfad1c716U,
  0x6dde5b7e30d031aU, 0x9538b7ed2228cce9U, 0xe2f823f10ef036bfU, 0xd738ec33ebfbef37U,
  0x2bfdf40eeb173719U, 0xc7feb00fd8f211f4U, 0x9af512050d1029d4U, 0xe419060a26ccf1f0U,
  0xeff6b19ec5e005c5U, 0xce04cdbf1f23db00U, 0xf2ed0ce8292400dcU, 0xf71bf1fc0946d43aU,
  0x53d1e517af0e1c4cU, 0x980e82defc111718U, 0xcf01d302111e17deU, 0x1010074527d8f6e8U,
  0xfd0fbbcfccc200f1U, 0xfaf4f7b2e214e911U, 0xfff7eb0a1e2906d4U, 0x13e50befe928d600U,
  0xff08faae400b0ce4U, 0xaed1ee59f93714d7U, 0xefe113edfdd3479aU, 0x12fbfcefcda9c04fU,
  0xe9c4c4ea0813434bU, 0xe431d52b1514e3d9U, 0xd5da04011fdc23d0U, 0x9a29f337aed4d3ecU,
  0x3308edea1c0d281cU, 0x97d6ad12d5171300U, 0xa6fdf7ed2ef5229eU, 0xfef2010ef1ccd91bU,
  0xdf11d517e0f54927U, 0x34508e02d3cf2f4U, 0xd4e0daec32ecfae9U, 0xda23d7f0e616cce8U,
  0x76f7dcfe0afd3858U, 0x93f385d21d2cefffU, 0xe714cef511152fe1U, 0x12e20919fddbf70dU,
  0x11260318f7f3fc2cU, 0xed371bac04f11134U, 0xf6f8ea081af3cbd5U, 0x20bee6eddbfae1d6U,
  0xbc1d0ee42701cdd9U, 0xea41affd193701d2U, 0xe1e7f5faceb7b80cU, 0xbe3002e51c01dd08U,
  0x23d80ed53a19b8eeU, 0xfec9cd0613f11e16U, 0xe4c540f0efd1fdb7U, 0xedf0bf6e4ecd46cU,
  0xe9f826ccfa0811e7U, 0x31f2f314f311f0bdU, 0x17cdfef9b705f533U, 0xee0cf1d021e305dbU,
  0x23cdf7d42c13e8c7U, 0xd3d300f604e713ecU, 0xf1c820ca09edf9f3U, 0xddfedc0811d9ed23U,
  0x2bff57e602070205U, 0x500c8c112238ec81U, 0xbdf1da0fcfe0f32aU, 0xd20102eb00edf328U,
  0x15b1d1cbfaf9d519U, 0xeebbb6dffa13140dU, 0x6e8c0b7dce5d3e7U, 0xe0b3ff2e0ae4e611U,
  0xe9e6f7bfff000af9U, 0xe4f9e3f2d42e08dcU, 0xdbe9f411ddc1e6e1U, 0xc07161715fc20f0U,
  0x11fd24db0d10fdf5U, 0x12d6ddedfdff021aU, 0xc5ee1f1018bd24e2U, 0x15e7c1f9e409f82cU,
  0x7d416bedee72503U, 0x21e7ff12da21f9d1U, 0xfbdc1e11edeb0606U, 0x32feff0f15e234f7U,
  0x15f3f1dc100714e0U, 0xebe30916f90cef01U, 0xd6ee18f61c062ef8U, 0x7e1c7fbe6de100aU,
  0x381417c4091b0923U, 0x3ae8d1f3fc37e7c9U, 0xc4d6f21e17dd19f5U, 0x310be71f10fd28e0U,
  0x3bee2dcfcd80133U, 0xe9e5b4e61e0e0811U, 0xf22cd1e711f6f80aU, 0x2adc10fcf24eefeU,
  0x15d9f22d1f1204dfU, 0xc1411eeafde417f5U, 0xb5120e2ddfa6d1e7U, 0x26de060527df3aeaU,
  0xf13dfd010d411ac0U, 0x14bb05e9eec53a62U, 0xcd6252dffede9faU, 0x33e4e935e4d51542U,
  0xa05f9f404101afcU, 0xf7e320fed3f007eaU, 0xc9091319e101fbf3U, 0x26dff1f9f6ea27deU,
  0xe90ede01000d1bbaU, 0x1df190ad8e42c2bU, 0xe8ee010a0600d708U, 0x17ddce10dff0fd1aU,
  0x252a06fb140e1024U, 0x1ff9cce80a181501U, 0xc712e7181be525eeU, 0x18f9b52e0fe5e709U,
  0xf8e4dd00edeefc2aU, 0xe9c807c92b102436U, 0x3822b20414eb98dcU, 0xf7eb051a9e34e410U,
  0xed4a2dd9e5f7f708U, 0xe61cb01aa23a47f0U, 0xe207ed13d0fa07d4U, 0x52e212409eb1017U,
  0x5cff49cdaef5105U, 0x1304d0f114120105U, 0xf5cd47d000fce0baU, 0xdc0b08d6cde8edf3U,
  0xf45516d6d6f603e9U, 0xe2fabe08dc0e43efU, 0xee23ac18fe20f7d9U, 0x160c0316181607fdU,
  0x2ec5cfe9e40955f4U, 0x47f6cafff4f31221U, 0x21e611d21416e4d2U, 0xff1c17dbd6f7d3f3U,
  0x103c00d6c8e909f4U, 0xcc21d3cad9231905U, 0x5820b63ae01ce4f6U, 0xe41124131305310eU,
  0x18db0c57f2eefb0cU, 0x23170f17b6f01228U, 0x25efcf0fff1430e4U, 0x908faeed402db18U,
  0xee21cbf9d418f408U, 0xedd9befbd81d1509U, 0xe7f8e1a3fef530e1U, 0xf1f51dfdf5fd00f8U,
  0xe6e1eb98bdef1f1dU, 0xcfb09e11f2a03e3U, 0x15db22e64916d4ecU, 0xa9f126c51cfed2d1U,
  0xd27d7fade07f71fU, 0xf8dfe3eed4f13707U, 0xda1ab9c6ff0d2bc5U, 0xffc8f919f9f61dceU,
  0xebccdbe3c6fc26f2U, 0x1efb03c90223ebebU, 0x1ffd0bf72422ebe4U, 0xcb03eede04f8ccc5U,
  0xfc2cc6d8cde6f01dU, 0xd0f4f5c9aeec4d00U, 0x531cad0dedfc07eaU, 0x9dffa200d0d3600U,
  0xddd11558111eedf7U, 0xffce8ffcb04f1e7U, 0x1ff4fd1a051633edU, 0xdf2e04ecd109e018U,
  0xfc01ffcfca3bfeeaU, 0xe9e8bd1e4436e8ffU, 0x4f3a897fae1edd7U, 0xefe6e5ccf6190421U,
  0x90ddfd9c4fe3d40U, 0x7f003edb102ceedeU, 0x26cdf8d65bdac150U, 0xadda61cf02f2f1afU,
  0xfcee24fcad01e51dU, 0x4d8e0fa01fdee03U, 0xa1e2bd9ee4f5fae0U, 0xbeee6050f0c06c7U,
  0xc00dc05da114dfcU, 0x46172a121a45f9dcU, 0x1beb0fdf00e4c114U, 0xc0fc31f1f0f1f587U,
  0xd70f2be4bfefe212U, 0xd4d115fcb8f94bfdU, 0x3d7dbdafadcdaf6U, 0x40e8f22f42032bffU,
  0xf4d4ec4c492002f5U, 0x1e16c73508130ccdU, 0xb000a08e0252a26U, 0xd61c21dbd801fce2U,
  0xa0374cb11a04ec02U, 0xff33d6eb0c2cf504U, 0xe1800f430fa030aU, 0x4f1ddda1cd79aa7U,
  0xfad4fcbfe225e4e3U, 0xf2be80a041d11f8U, 0xf1031bcbd6dcf3a4U, 0xabab3715e4d5dc0eU,
  0xcb0fed811408f409U, 0x1bf2f2170bff1e1bU, 0x1603f6fddf00f30bU, 0x38c2e9fb0ed6bdbbU,
  0xeeccd4b8f212e5aaU, 0x1610d4fd0016f9U, 0xe01824b907deebd5U, 0xb7b61a1dffb9fe16U,
  0xc8fbeb8e21d2e5f2U, 0x3bfd1612f9cff2ceU, 0x1cf4fd41deddfbf9U, 0x12ec02f1eadadc31U,
  0xe10a78cfc0e2ecfU, 0x2814230703efee14U, 0xe50b30e3f70adde6U, 0xddce2312ecca2634U,
  0xb5f828d012122803U, 0x305f1df2421dd10U, 0xd1cfaeefc0ad0f1U, 0xf8f2030df91dd2ccU,
  0x902f7bfe00a02d1U, 0x62fee391d102afbU, 0xf200270deccae4d4U, 0xdfc5f2c7090fec0eU,
  0xdc01ff9f190e12f9U, 0x1f05f60a351a0c1cU, 0x3303fbf7e105f6f3U, 0x22f9f927ef01f5e9U,
  0xc02e0b110050699U, 0xf71605010e061cf9U, 0x38f6f8f3e413U, 0x12eefcdafe0afe24U,
  0xe7f105b410d007e2U, 0x2e1016ec16eb0edeU, 0x3a092234faeb0aeaU, 0x1115e816e6fdf6edU,
  0x2704bd93181c3cc1U, 0xd031b290ef00a1dU, 0xe1f9390ae403edebU, 0xedeefeecd70c0624U,
  0xee0c0242daf70f1dU, 0xdb1204c63ffb2a38U, 0xff1d01f3fb1bd338U, 0xcfdf0e02d72dd7bdU,
  0xfa620fc7f10bf7beU, 0xaff20dce2310feebU, 0x21f6fe222a0fd6daU, 0xcb560e1b1002f9U,
  0xfd0809eff7eafe16U, 0xc6e5f5e126ef2c22U, 0xc0af602d820ed05U, 0xed100404ebfeeff7U,
  0xed18f634fb15e8abU, 0xc303dedc2532f8d3U, 0x51205182145e33bU, 0x42e40911fe1709f4U,
  0xf600eb2e08ce15dcU, 0xfcf8ecf6e7dd35eaU, 0x10281043fcf913d2U, 0xf4360e10d013ec15U,
  0x3637cf9e202209aeU, 0xfa01fbf80cf107e6U, 0xdd1a0118315813fcU, 0x2df3e406c346119aU,
  0xadb4290f3d1bf0fdU, 0xfc2a650fe5c109e0U, 0x1d2aea5701d80923U, 0xf9e516e2e81730e8U,
  0x3053de9f20f6ee08U, 0xd82b36fde42f3816U, 0xf208e503d8cfd929U, 0x2119bbe238243e35U,
  0xa40844013519efe9U, 0x430272af3ee14e2U, 0xf8060313bdc5223fU, 0x81cfdc2ed1004f2U,
  0x1f12f0a12b06d903U, 0xfd22fa06f72e2c2aU, 0xf33301e4d0dafa10U, 0x12c589f71d2c0717U,
  0x8b2a530543fbe4f3U, 0xe50d020d0c92df5U, 0xc7330428a1c3fc20U, 0x15ee2fc2ec04e812U,
  0x4b02f29925f70be6U, 0x1ef31005ea1b3b4dU, 0xf23807e105ee0a05U, 0x12dfa41d030d2cc9U,
  0xc09bd70d0120f317U, 0x3cfc3f2c07f5dde9U, 0xe415092401d81004U, 0xd6eb07c8de0218ceU,
  0xde3218cacfd5e544U, 0xa7e654e6142a0ad2U, 0xf703f516cb2ff1e5U, 0xd9d787ec31200f21U,
  0x3160b08082ff000U, 0x120e230d08fbdcf8U, 0xe6092cfd07df0607U, 0xc02414bcdd2500d1U,
  0xfbee240be6fbeb30U, 0xbed20bdd151e08f9U, 0xfe2afef2e30705f0U, 0xf701be000c1be2f7U,
  0x13370905dd11e4e3U, 0x10cc00dccfb1626U, 0xb6e20befd6f6d6d8U, 0xd00a3adbdde6b9d0U,
  0x2fdbf9fc13d40b0aU, 0xd2bcfee315270d13U, 0x1f252605070b24e4U, 0xe536c10dd12fd9daU,
  0xd2c3a81af60cd234U, 0x5a0b24e7ea41ead9U, 0xca30f181f6fae617U, 0xb31c291820171addU,
  0xd3f135f3dafeff2eU, 0xc2113dcd4f35260dU, 0xdef528c3ed55c5c1U, 0xa11076f61edac2f3U,
  0x14e9edf7c60df926U, 0x350805eb0a0ee0eeU, 0xd50bedaf0f00e910U, 0x33c18f53b1f2eb6U,
  0xeac65128fdd21a03U, 0xc604efb71d1c07e8U, 0xf410f1bc1512beb6U, 0xd1eb07ebf0ebd7ffU,
  0x15e932eaef0adf04U, 0x201cdef50d3d0609U, 0xa2c8ffaef7f6c516U, 0x1e230bec6ee9f60fU,
  0x17d92b461aaeed3aU, 0xe502d6e3472ffddaU, 0xfc0e24dd2117e1c8U, 0xdc141104bc20a9f6U,
  0xdd20040517ef08edU, 0xf513befbde0fe1f0U, 0xf7f11c31f9d513eeU, 0x1612ff1b04b6eef9U,
  0xfd318e32dfa14e1U, 0xf817dd0d24fb1b07U, 0xfbea2900db0321aaU, 0xf1e43007c310244bU,
  0xd00a07f716eb0ee1U, 0x12f4bdf3ec16e806U, 0xe8de0722c5e9f4f1U, 0x2ff1ed0efdc3eadaU,
  0x21c722d126fd35ccU, 0x280be511f2f92f18U, 0x251601efdc0610d8U, 0xd5d9fbfbebe61406U,
  0xee0321f912dbeeefU, 0x26feacebdc36160cU, 0xd1b7ea7fe30fcbe7U, 0x2186edfde0c1eb00U,
  0x1ec5180f1c030f1cU, 0x2c0eee32cd061ef8U, 0x1e16d70ac21426f9U, 0xe2d3081dfec517dfU,
  0xd206f6e007f617eeU, 0xfcdfd8e8e9dbfef2U, 0xe8ec0b2efcf2fc05U, 0x606ff1ff4c71ae3U,
  0x29f104ea10132eecU, 0xf0bd9f4f0fb101eU, 0xf7ee1109bd0a14f4U, 0xf9baef18d3ef3121U,
  0xe1fd09e505f3ff0aU, 0x4ecc0e00df60803U, 0xe8e3eb22cbeedff6U, 0xf6eaf70defd9ffcaU,
  0x2f7f7d6ec2a2cdfU, 0x2a14cf00edfe201fU, 0x29051108c70b13fcU, 0xddd1e41000e22004U,
  0xd10e0bed00e30620U, 0x1bf0eed0eeed2021U, 0xfabdbc59ee10c019U, 0x28af90acff306cfU,
  0x5ddf801e7071c1aU, 0x510d209b8121a11U, 0x381aee20dfd703ecU, 0xe7dde40d19fc06f1U,
  0x4031515fbef150aU, 0x8f0ccb6d9f5f8fdU, 0x8ed4272bf1fdc42bU, 0xf51d1bfccc18e7U,
  0x300bf8bcfc531424U, 0xfce9f7d00a1c233aU, 0x1bc02315c22afccbU, 0x3b11733c8014f1fU,
  0xf90710fef8fb271dU, 0x6e9c1ebf3f11affU, 0xe5f1fd1abceed10aU, 0xf8f9050fd5d9efcfU,
  0xfb0af7b9d31a1c02U, 0x503f21b13131301U, 0xfcf21ef9e31afefeU, 0xd5e20ff40029faU,
  0xe52418f3fbe51233U, 0x1411f4d6ffe31f1fU, 0xccb010d0d1ac545U, 0x16b30efbf10de7e2U,
  0x1b0e0eeccaeb050eU, 0xee11ea08f50cef02U, 0xe70333fef6d8dbf5U, 0x32ebd6071410d11eU,
  0xece324f623ed70ebU, 0xfc4aa11f626d8f5U, 0xefe725f91d0e1fd2U, 0x390d1d13d4b01705U,
  0xedea05c32b3df5ffU, 0xb42ab1d20e33e5e9U, 0x1205ed00fdbf0586U, 0xd0be0c32edd0fe1aU,
  0x1dc0e51706d7f10cU, 0xab8d631f8d71dfdU, 0xd2dd0608c1f202c5U, 0xf3d8321305ae38fdU,
  0x271ffef30817edf6U, 0xf00b05e60cf5e422U, 0x121e0627eee90a94U, 0x1bf2e5241aae4011U,
  0x159bb534f4f1fe1cU, 0xffcbc6f753a4f2d8U, 0xfe507e6a3f3ecf7U, 0xc5c847bb1b0a2b10U,
  0x4d2d23f7e3d6efdfU, 0xf70a52c801be0135U, 0x1bfe193e070443ffU, 0x4fe8d323230b40ebU,
  0xfe070e0614196fe8U, 0xf4c7cee2c74008f9U, 0xe043d09521305f3U, 0x2e3908f8f7edf310U,
  0xf4fbd50122ff1911U, 0xf324dbe0100d52c4U, 0x4823dd0c06fc219aU, 0xf4eab73bd8253935U,
  0x14fdf3ea0d060fffU, 0xebc8dc13c10d41f1U, 0xef0d13eafece01f5U, 0x16101afdeedf08e4U,
  0xc335ddff08e8e40fU, 0x2f05f01c171016ffU, 0xfd27e6100e0e1bb7U, 0xf7f9ad1feef04525U,
  0x2801d1f5fefa1e03U, 0x26dc0f1525ba30e3U, 0x2d29e8d2d3de4bf4U, 0xd5fe20fd24f1f7f7U,
  0xe62ee9ed1ffdd409U, 0x341a27e431ee0d17U, 0xf70a0c1c031337f3U, 0xf6fde835f23917f9U,
  0xedfa0cf803df24caU, 0xfef80bae22350edfU, 0x12dcc7fa4f0a2330U, 0x12f513cff303c003U,
  0x52ebf2c002ec2370U, 0xbde017b2f8ea36aeU, 0x7ff8cdef2801ffedU, 0x16e6cc5b30280e0bU,
  0x26e2f3f80138f1c0U, 0x6f004fa301d09d3U, 0xd141b8e01cc23826U, 0xe21d2f5fee8e2U,
  0xc7ceead9050fe757U, 0x37baf5f924bd51deU, 0x31fcc81b2d47d8dfU, 0xe7eafd0f1b080912U,
  0x48e6c2f70441f4ecU, 0x15e4f1192809edbbU, 0xe328eac5dae25203U, 0x6e623cd20e9dcfbU,
  0xc4ece6092e23ba56U, 0x60da17f058ca1cfeU, 0xc0e6f61005161a18U, 0xd1f4f910ef011721U,
  0xcaff21ac0005fe04U, 0x24302814d62001fcU, 0xd5ec041df80e042eU, 0xc05e10a26ca17e7U,
  0x12d8ff92faf2dac4U, 0x4fa01ebe222f4f9U, 0x29eb07e7f3d6eef1U, 0xe58c131ff6ec34f0U,
  0xc812fec5fc1ff409U, 0x2a250d011f2208f5U, 0xb6e0fa2ce820fd21U, 0xf00acaf80ce81b02U,
  0x20d4fc8fd5f3ddd0U, 0xde92bd6b100e813U, 0x31060fe008df0000U, 0xf81ef3e13c32ce6U,
  0xc306e9eb161a05f2U, 0x1a2de8f4ec02f5ebU, 0xb08ed30ff08ff18U, 0x87f20ad9c4ebe02eU,
  0x1aeff5b8d8022bd0U, 0x20d43f78df9eef8U, 0xeceffceaf2eee3e0U, 0x14c605320bd4fb01U,
  0xf4010e9fef090e15U, 0xff1c1f13061ae413U, 0xe6f1f72ee300fb35U, 0xde513ec09f312e3U,
  0xfbeff6dce00c11fdU, 0xdf1ded05e925c9d5U, 0xf6effaeeeed10316U, 0xdccb010213f90df7U,
  0xfc0ff6baed260420U, 0x6221f012414df0fU, 0xe2d4fb3ee62a0031U, 0x30bddfff30201e1U,
  0x1f70cb0c10e25f4U, 0xf205fbe9b421c114U, 0x23f818e4eed60018U, 0x8b5d4161fff01efU,
  0xecfbddeb052503f3U, 0xfb1c01f01b0aedefU, 0x14f6e62f08e4fe10U, 0xf316e414cc06f3fcU,
  0x21002a1f0f450dbU, 0xdb0d0ef6b1e4e2fdU, 0xff103ea0bfbf4e2U, 0x18e9f11a0019f5efU,
  0xf1e70bf0dffa2124U, 0xddfd17f61e03c416U, 0x2e11141ed5f8dc1bU, 0xeeffafea10f7d7U,
  0xfa04fe0cdc2a13e7U, 0xe914e51f04eab7ceU, 0x9803e306f5fe3af9U, 0xffb28dbfeea0cf3U,
  0xfaedeceae0010c37U, 0xe60c19ed17fbcd04U, 0x28f30e0f1a24f80eU, 0x3f7d5c2e511f0f9U,
  0xf422f3eacb233c06U, 0x20bf5f7f30d84edU, 0x9e0f07ebd9e51a18U, 0x30eccf0dfe12fbebU,
  0xfdf5ea00e2eef8f5U, 0xf20720eb04f1eac7U, 0x2ef40c1d3af8f535U, 0xf0ad8f2dd08f20cU,
  0x1f1ef29ffa0148e0U, 0xddf5f5eab9eeaeddU, 0x14fc0be2fcfc1deaU, 0x2aebf30fcd1cfcefU,
  0xcece3cf009eec007U, 0xfd31e227ff1cdccdU, 0xff5a262af4fe11f8U, 0x170415fafbdfd6f0U,
  0xc2dbfcf720c4f80aU, 0xcc14101e08001519U, 0xf0f7f606f4e1fad0U, 0x5e5ce41cd05fb26U,
  0xf0ed0a12f3d5f1fcU, 0xe1f5ef0b1710f7bbU, 0x1026faddfde9ff20U, 0x210f13ec19f3d7cfU,
  0xe0f2ef152ffecefcU, 0xff07f40e11d2331cU, 0xf5ea1014ec0709f7U, 0xd02ce12f801ee0cU,
  0xf4e7e0ecf6bff9f3U, 0xf10fffe80edce1aaU, 0x4d31d9c0ffd2fd45U, 0xfd05f8fd171eb0f5U,
  0x913eded2109e308U, 0xe5fd0711d30831U, 0x8d11620e30eeaedU, 0xd3b00eedcf5d724U,
  0xfbcc0ae40c081108U, 0xfe040ff9fc1de5e9U, 0xec071b0d01e8ebe9U, 0x250dfefff90f03c9U,
  0xe9fbf3f010d725f6U, 0xdce60d2603fa1b05U, 0xf73004ffeed0e9e9U, 0x6e99615e4330923U,
  0xbf41813f1ddfff7U, 0xfcf80b14f82bf8deU, 0xfe0b020007b2eee0U, 0x19080010dc0103f6U,
  0x8fadefd02060fddU, 0xfefb121800d11222U, 0xc8080506ffeb01f2U, 0x18fcd5f3d4110311U,
  0xe31fe3fbf6e2eef2U, 0xe8010f0ef4ebf4cfU, 0x3d0ee7e514d0fde9U, 0xfc06f724070ed8f4U,
  0x1f14ebe90e0b140dU, 0x2ff110416dcf118U, 0xdaf61c1ff10df6f8U, 0x1420e6e4b5fedf24U,
  0xdcbf000b0623e210U, 0x1bff301bf3150c00U, 0x81ec012cebe42812U, 0x34fd12e803fa14cfU,
  0xfffc27e11ccf1a3eU, 0xc5c21df207e83f09U, 0x81dfcf9ebf3f7feU, 0xfbded247f22b051bU,
  0xfffd0d2309f202f3U, 0xfce30813d30a0600U, 0xb9f1f502dfa631fbU, 0xff0021effa000ce8U,
  0xf3fe23f60cfd0307U, 0xe7e108e801db2c14U, 0xe718ff0dfdffeb07U, 0xffdfdc11e726f80aU,
  0xf922e6261ff7f3eaU, 0x1eede522e40111dcU, 0xe811f6e5efba5a0cU, 0x31d1dfe0a05f910U,
  0xd0afdc13003fe13U, 0xc9f7eb07d53415U, 0xdedfb121b1000e9U, 0xe9f5f4179911d915U,
  0x180926cfb809e008U, 0xf4f9142fe4ace4ffU, 0x10cf550e344634f6U, 0x35f1eac13b2e5c23U,
  0x1e2d2403dc032cbeU, 0xc1c658f7e716cac6U, 0x121e05cffdeac359U, 0x2b2d630de9f5fbc9U,
  0x12403f3d216da1eU, 0xfbf2dfe7f4c32410U, 0x4d40819211defcbU, 0x10eee3d903023717U,
  0xe001ea37c2ec41e0U, 0xbefe0bf1e82dd7d9U, 0xd107fdf3ffd1c82fU, 0x211a38b4edec08c6U,
  0x2837e73bed19d33eU, 0xf001baf2f7baff3bU, 0xd7d2a0050618d004U, 0xf7e4f5e4f1081c39U,
  0xe1d31528e91f5011U, 0xe81613e2f817e0cfU, 0xf621150b18011d1bU, 0x33fe3fd2ffbe399fU,
  0xc907120cdb2197daU, 0xee351df92be2f621U, 0x3f241de1411935f3U, 0x141018ca0d2317d8U,
  0xd537f7d1d1eed0d8U, 0xf6ee0ae7ef56ecd4U, 0xfae4fbed05eba925U, 0x732d0f92efad6U,
  0xd7190205e7f7d502U, 0x706f9bc15e20833U, 0xbf70de21213e6ecU, 0xa13ffad05060ad6U,
  0xbb150a04c413f4eeU, 0xf70ae8dff71f10b8U, 0xdedbf208efd6be17U, 0xf70a12c10a0c01c6U,
  0xee010434feecf517U, 0x416dfcc21eedf0eU, 0x1105e6dff0f9db13U, 0xef0e22a5fa0ae706U,
  0xd3ea3605fc1e1411U, 0x11a00fcebd723b4U, 0xfefcf718cdf0f31cU, 0xfafa0fdd09f400c1U,
  0xc00d3c17c34393e1U, 0xd061d4f35a0dc648U, 0x3747d5061447f02bU, 0xe5561191fd400ac7U,
  0xe62a1ca7d4c08ff0U, 0x20f9310f167dedb8U, 0xfacceec931cf89f6U, 0x2c331e5412925e6U,
  0xb5e31407ec07eb05U, 0xc0fd3be3500e13eU, 0x32fecfdee827c0ffU, 0xe549f781b83004e9U,
  0xde2723d1c9ffb7f4U, 0x2e171df9035201abU, 0xc7dfdbd321879406U, 0xf3c6fdc1480d30d5U,
  0xf3a80c4d1cec1a26U, 0x2249afd217f6dc08U, 0x4e18e0e9ca06d73eU, 0xd45516a2f529d43aU,
  0xe91a29c405f5d6dfU, 0x29281e1513060adbU, 0xb2dff1f9c283b914U, 0xd1c2ebcd3a01200dU,
  0xeefdf90102140704U, 0xed20b5f7402ff0dfU, 0xf819f50504ddff00U, 0xe9e908cb01f8d7faU,
  0xeaf2ffb5f4e3d035U, 0xe7112b09e1ee08f2U, 0x7d9f4080819f2c4U, 0x2fdefaf50a14d032U,
  0xf2fee1f8f7060f1eU, 0xe717c40c213dded3U, 0x211208e900cfe61bU, 0x12e510d6140fcefbU,
  0x2db03c9f6ebdc03U, 0xf3fd09ede6fdede2U, 0xee800e4e71104e3U, 0x1f13e0f40808ca3dU,
  0xf4e5f6fe11f80a1cU, 0x839b921e033deb0U, 0x4f2206f3c1dafb27U, 0xbb6f4201401a7adU,
  0x23f013e5f903ccd0U, 0x1c1f6fce807fc09U, 0xfdeb0dccbff71defU, 0x811edf0fcc8c927U,
  0x401ecf5ce23100bU, 0xf716cb0f2235e8f7U, 0xf21bf2e12aff08dfU, 0xae4fce81ef3d2e8U,
  0xffb17c5eaee0edeU, 0xfafa1b12fcf01205U, 0x7f203f3213cf2e0U, 0x23fb17d30922d416U,
  0x4f8e4e3e000f408U, 0x51bdcfe162ae1f6U, 0x220c10d11df00ae0U, 0x1fe2f50c070aec04U,
  0xed8f4e7daf4feddU, 0x11f0fa11f11f03f6U, 0xbf8fbd4011117dfU, 0xf900fad3150dd919U,
  0x13eaebf209f1fa05U, 0xf220be1cdf20eef4U, 0x38eaeddbf7da01e0U, 0x2dd603341bf4f3e1U,
  0x4e5f2f4f3edef20U, 0xfdc0f00d051f0420U, 0x160302dee1e726f8U, 0xf4e8fdd5f712f708U,
  0xfc6f203abea1014U, 0x914d9ea4b13d70dU, 0xfb11feb936241425U, 0xf4cab8b2103ee52cU,
  0x19fbf9a6decdfb08U, 0x170c2df7262de5fdU, 0x17feffcc200b811eU, 0x5b64cc62b3bdaebU,
  0xfad5ded4e1dd0e0fU, 0x1e09fce82820ed08U, 0xf80101c6060b2afaU, 0x4f2d8e10511fa0cU,
  0xf3f3f505f1f30315U, 0x29160dfb0f0df7f3U, 0x2606f6d813ecd709U, 0xf4dd0de1f43be8efU,
  0xffea10e1e0ed19f6U, 0xa13dff02a1ff912U, 0xe5e7e2b3e6da09fbU, 0xfd18fcfe2c09fcdaU,
  0xdcfef71b0301f62cU, 0x1808f8ef311e191bU, 0x42f706f406cede28U, 0x8f315eaf653e8fcU,
  0xd933fbffe9e88100U, 0xb28c70d142ffef1U, 0xc71dfa20f6eeeec5U, 0xf4fb11f418d3130eU,
  0xf9dbe100ffe80806U, 0x220e90c09dd0301U, 0xdf1006f3e6e2fe96U, 0xf5091df4dee8020dU,
  0xdf31e2faf0d2defeU, 0x306e0fc091d06faU, 0x1817e9f4f113ed04U, 0x1f0c0814cdffe7U,
  0xf702be1ef70f150aU, 0x1819e80e1cfcfafbU, 0xe90f07ee0cfbf7d4U, 0xcd1a2ee60b0eddfeU,
  0xf1f7c6eeefeae111U, 0x2eee1dce0fef60cU, 0x2d34c402001bd203U, 0xf4241408fceb07c6U,
  0xb217c825ec4028f0U, 0xc10de17fbf9fc2bU, 0xedf514f709fcd0eeU, 0xe4ec4edbf81ad21eU,
  0xeb13e6ff00f7e2f4U, 0x1521d80103050c03U, 0x1814ecf5faf0faefU, 0xf9fd2cf80ffc1de0U,
  0xfdf7eafbf9ee03f3U, 0x43ceefffd15f0f7U, 0xdaec06e218e9fdd3U, 0xee1ae6e900eded12U,
  0xe32ddfee05dde5f1U, 0xf8f8e5ef04e41801U, 0x4704c8f1e615ebfeU, 0xe5f0070801f010e3U,
  0xef18d309eaeff6d7U, 0x1f2ef60ee803eeeeU, 0xe6f215ef29dcf9e5U, 0xd427f8df0c0bd0f8U,
  0xf1fedcdd0de0eb0aU, 0xbfe04ce04dfecf9U, 0x561dd6fcf436dc0eU, 0xe50d07081811f710U,
  0xe22dee23ea242aebU, 0x140a0624cf011004U, 0x38f10d140007dcfdU, 0xde0446e0f0f8df27U,
  0xf7fbf9f908c5e4U, 0x1557ff111debe91aU, 0xf13cd90cf3e6f801U, 0xf10416faf90918c6U,
  0x610f30cf00617edU, 0x1f0eea08f101141cU, 0xf0ee0def17e7dcddU, 0xee1401c304f30a10U,
  0xdb2df0e9fae1cfeaU, 0xf31efdf6fcd10714U, 0x1012d90be214dd0dU, 0xdb18fb00f4fe15f7U,
  0xef17fe28ef06f8daU, 0x2919e825e5f6ee13U, 0xfef81c02eeece3f6U, 0xd12022e60ae6f910U,
  0xc7fdf0eefec0d7f9U, 0x17fc06c7f4c4d4f0U, 0x31fcf2eefa38c225U, 0xe51be803f209fa0bU,
  0xe81300280b182ccdU, 0x27eee633c412f301U, 0x15f10318d7e9da02U, 0xcaf124e8e0ccd832U,
  0xd42328b6e109d112U, 0xd38e2fafb33dbfaU, 0x2d0709f91530f3f1U, 0x2ff504dc3f05f523U,
  0x291606c9ede1fcdeU, 0x19bc0febd8f607f9U, 0x22011bbdeefee116U, 0xa0117ffc612eeefU,
  0xe2315d0ee0d0902U, 0x1b1d23daf718f923U, 0x3cf2120f2d1bece8U, 0xfa11ccec1e2af91dU,
  0xd7d10cebc8ff07e8U, 0xe5f7ced4ec72f2e4U, 0xf9ef14a0e5edd332U, 0xe6eafbaefa08f0f5U,
  0xf221e4eae407050eU, 0x1d1a14ecd4dc2a07U, 0x5f3fa04120a0ff3U, 0xe6e6c3ebf926f608U,
  0xe1a100efeb162aeeU, 0xe1fee6c9023f06c8U, 0x4f40da816fce129U, 0xf31a37b51bcbfcf0U,
  0xb91ae3f8f436bbf8U, 0xfd3123f34f33f80aU, 0x311ff6c20e231ce6U, 0x15ff01ea080ffff3U,
  0xf5011cc1f2e4fbf2U, 0x26aa4ee9e416e7f4U, 0x34f0e6c12ae1c325U, 0xf8c11fe8f1331cd7U,
  0xfd03f1fde80deb07U, 0xc1b10eb2317ef24U, 0x29e6f0ea020dfaf4U, 0x201efcaff1210e7U,
  0xacee2ae2d1f9d8edU, 0xf0e441cbf65cc8cbU, 0xadedcc6f1ddc817U, 0xc9c1edcd10051cdcU,
  0x1f6ed09dd1503f7U, 0x140716facd00f614U, 0x16da02f11ade05f3U, 0xf505fdd2fe1e12f3U,
  0xb6cc0ff3dd0d0efeU, 0xf70439f2254cc2aeU, 0xf5ded2e8effce71fU, 0xd6e817d40a0124fbU,
  0xed9f1130469b7f4U, 0x436fd157f1e0e34U, 0x925e0e3cc24ef2dU, 0xde0628d72a2909ffU,
  0xe20a09e4f3d2e413U, 0x26b736c3f3349ff3U, 0x2ed5dcae2da7bc01U, 0xccaefa18ff175edaU,
  0x2ebb060f0a32c1f5U, 0x180e260c4314f42dU, 0xcd1f2f1b600e51eU, 0xfe180cd10e2cfff5U,
  0xb2f8131fe1e8e90bU, 0x7e03de1e61886ccU, 0x8cacbc701c1ea09U, 0xb9c1e10e0fee29deU,
  0x24b4100f2321edd4U, 0xf120630dbfcd907U, 0x1ac50ff8ccbdf4e5U, 0x81012e00f10fdffU,
  0x97f6e923070310fcU, 0x363621071df89601U, 0xe0c3b3e7c2fb172bU, 0xd30312fbe3f426f1U,
  0xc4380eb50aed1bbcU, 0xfdcaf50c08e520U, 0x281b34f4e111ee14U, 0xdbd7edb801d2d33eU,
  0x352905fd0c4210c9U, 0xd6fcd824e6ecbdf1U, 0x19ea3512fbf426c2U, 0x27f65ce9dbe9082fU,
  0xbf001cb52205ede0U, 0x2609ee1efa01e527U, 0xe2422f1e30f02dbU, 0xeff3dfd5f6e8da34U,
  0x1900f4dff0f102e7U, 0xe5fad517ec0befd0U, 0xc0f3c0e08fd0bccU, 0xe007f2d711090e12U,
  0xb5e133de01fdfeeeU, 0x29581745f1e8f2f1U, 0xf3e40f4ed0f1809U, 0xaff9d9c5e5feaa33U,
  0xc1df6e10ff00404U, 0xeef216100242f7ccU, 0xc7ed081b11fd0cdaU, 0xfe06f01308e7f0f0U,
  0xdd33e2c610ff0db6U, 0xcf5f5e7f5ecdf10U, 0x20044103050df709U, 0xefeaf9daf2ece8eaU,
  0xfd01f8152f2df0dcU, 0xcd07c715e2eac2f2U, 0x8dd3213ebf826eeU, 0x350bfad9ead2e014U,
  0xca06e8d51209f7d7U, 0x3dc0824e9e7ec10U, 0x25073cdaf116e6f0U, 0x5f9dad70ee5f4d7U,
  0x4f9eb031907f7d4U, 0xc5f7e215e1fcc8ceU, 0xe8f63a0406221c00U, 0xf619d1cdfdeed105U,
  0xc301f2e1f0f0e5cdU, 0xfa2b2635edca0610U, 0x471f4fe90b14ed05U, 0xe6dbead70418f118U,
  0x410d40618ddfad4U, 0xe0f60439ee1fd7d2U, 0xc3da0722182515f2U, 0xed28d0ef09dacb06U,
  0x6f40e0edf0a1aaeU, 0xef04c9c818c6c9ffU, 0xceed2a3e3a1adbf2U, 0xeb06cf95d50ee3deU,
  0xe2f2d6f8121ad4ecU, 0xca2cfce9e8e0c3f9U, 0xcbbea08f812033dU, 0x5ce8fd06f902e221U,
  0xe9dc0e02ef0e17bdU, 0xc8f6f30dfdc7d9f5U, 0xf11d3bfb2813e1cbU, 0x1201afc6c9eaf807U,
  0xcf0fed05f30ff5f9U, 0xe21e05f8f202daf6U, 0xe0c1f4f0f0491c42U, 0x4b10edecde14cc0eU,
  0xced3f63cc0e121a0U, 0xed31281fe69bf1f7U, 0x5b67282a40180808U, 0xd1f8e1d28a140219U,
  0xd32cedf1ef1c3cbaU, 0xe9351912b3f4cad3U, 0xc6ac810f2c02f1e7U, 0x390716eccf17e10bU,
  0x4c1604d7092e81c0U, 0xfd275544000dddd4U, 0x90cf4d9199e0c2bU, 0x4294def0111ce1d9U,
  0xe0e2f548d71cef31U, 0xf5fd10e6f62dd9b3U, 0xcd15d9c7e5222321U, 0xecfcdaf6be34eac7U,
  0x39f50afef8390ce8U, 0xeef8530ad6f3e6ddU, 0xb9dd22e216caf34aU, 0x20e3e9d11822f6e7U,
  0x313fa27ee130b10U, 0xbf21fae8e7e5d690U, 0xeef4dbfeeaf8fc13U, 0x1aed0708ebf3eceeU,
  0x19f621d5d71ffef1U, 0xe5db59eae0c0dea6U, 0xfbe4342de0dbe22cU, 0xe908d5da172affb1U,
  0xcf14fd3c08fe3026U, 0xedf6bffafbe7f5cbU, 0xfde5ef0fd90ff322U, 0xce63bffeed802f3U,
  0x2648150f1cecc6dcU, 0x626243501f0f0feU, 0x18f8e30900a9caefU, 0x31e8e9c9310af207U,
  0xf19dfc572c3d0324U, 0xb1621f61cfce5d8U, 0xc7fdf0f0d4070addU, 0xb72210d3a4050ed4U,
  0xff2b1603feffe2d2U, 0x15ef20069cd9d80fU, 0xa1c711fd17b3ca1cU, 0x2cf2d9bf101a00faU,
  0x11e0cf3d41130eeeU, 0xf63ffb0416e4f3c3U, 0xd0e5f2fddfdcf4e3U, 0xd709e7cbc2ddecdaU,
  0xe21329e8e70cecbfU, 0x3d33507b5e3d2d5U, 0xc9d0322715e1e900U, 0x5003edc61c1f39faU,
  0xf7f5f7364517211cU, 0x2525d60b10e4e5b9U, 0x10e7edf6d7ec001aU, 0xe10f020bb8e007ebU,
  0x46eea143f39efdaU, 0xf424ff2d0aff4c0dU, 0x33ebf028b3f0f9efU, 0x1bdd11c507be18e1U,
  0x383ea413735e516U, 0xd8261e0afafbfdb3U, 0xf70be910dcfbf0ccU, 0x9afa14ece9df27b9U,
  0xf36ffd431b1fd7e3U, 0xf30e0824cad0280fU, 0xd7ea0a10e90821f5U, 0xe1bf13aed2e9db16U,
  0xf3d6e03523351bf9U, 0xe9420fed28dff2d9U, 0x1df3dd1ee7e6e2dbU, 0xc6091add02c60399U,
  0xcc45012c152101ddU, 0xc109f622a5b5d1f9U, 0xdbef1604ef2023c2U, 0xe5be2eb7b1cb1d07U,
  0xe5e0060c14211af2U, 0xfb3c14ee0deae9d5U, 0x52e4cdfbf7c6c51fU, 0xc2ff68180aea3c98U,
  0xe022bfede0092af7U, 0xf7cee4faf20f50fdU, 0x9f2be5c4d8b72709U, 0x5d9c90001f6f928U,
  0xcfcdec0ae6c7092cU, 0x52050aea13220c01U, 0x7f7c9f754e00811U, 0xc80122deed3fd4e4U,
  0xfa0fb3fcd21808faU, 0xf1d9fdf3fa0b3d02U, 0x8737fcdbe2cb560cU, 0x14c2fa20f21321d8U,
  0xc60b0e1beae9360eU, 0x14152ef6e7262407U, 0x15f2c21047ed0d02U, 0xde020d08ea2fece8U,
  0xd01c0f2a32e0122U, 0xe9c21503f80326f5U, 0xc507e3dee3bc46f3U, 0x3ce90b2bfef44cbeU,
  0xa8024404d8ee0443U, 0xf60b220c030607ffU, 0x47e4f4113a0f23fcU, 0xc6310202df450f04U,
  0xfd2cecf6d0e308e9U, 0xf0e0db10f8ed35edU, 0xcadad6c5dcf7ffc6U, 0xeda0002eeeb29ebU,
  0xfa0cd115d2172dffU, 0x361c0b2dcbefcef2U, 0x1210f50114ee2519U, 0xf60ce3d1d108f1c4U,
  0xd842d902e8f3edf7U, 0xf5f0fefb0dec2a03U, 0xcedfd4c6d300d9dfU, 0x16d7fd26f0fd30b3U,
  0x92df40bda143209U, 0x1e1c0e24c7f513fbU, 0x270e160f3ae71300U, 0x6f3e1e0ebf1f3d7U,
  0xdf3bf70ff4e4d4f8U, 0xfbf70de0efe6f914U, 0xcac0fcebda13b0dbU, 0xfacee40afaf9298fU,
  0x81304fdf0310415U, 0xec080d2bdef80f1cU, 0x30ee2e0934fe0a01U, 0x1000e503eae302f6U,
  0x9223005fde0f2f5U, 0xec200029fce9f2edU, 0x30fa1fea81fdf7edU, 0x19e932e3eeeb29bbU,
  0x192305f2f02947e9U, 0x2638e839dd14d910U, 0x3bde39fcf3ea0405U, 0x1d0ee3cfc1d60de6U,
  0xe01b031315d6ee07U, 0xf3160d0118ecf9f9U, 0x34e6e5e0b815dcf6U, 0x9c3fff3df0114c0U,
  0x10092aeae13433faU, 0x93a011bda0ff3fdU, 0x24ef25ee1dde050aU, 0x18f9d5c401cb0fe0U,
  0xe812f62e40c8ff07U, 0xdf4917e202c9b0ffU, 0x14e9deffda35fa01U, 0xe7b4e8cbed0defb7U,
  0xc0c3cf7dd4206f3U, 0xdd422e23e5f0f016U, 0x19e626f60c01e916U, 0xdecd3f31e9903faU,
  0x13ed44ca07f3f3d6U, 0xe2152af1b2ee21e4U, 0x131c1a06f9c90decU, 0x251ddcfdf8fef0f7U,
  0xb81af10dc7c802d7U, 0xe2f0eff8ddf31e12U, 0x900081ec8f94433U, 0x35b5dd14bde80c19U,
  0x29ef06c7f33c09ddU, 0x14354e0bccfc0bfcU, 0x180810f50bfdf8f4U, 0xc4fde0c101ee2ddU,
  0xb9fffe14cef7ecc7U, 0xfdddead8e2022007U, 0xff1d050bbff83044U, 0x19bff015eaffd00eU,
  0xf6eae8ed142d21daU, 0x3228663ceafbf7fbU, 0xe4062219061cf2c2U, 0xf67f0812da28f1faU,
  0xd70be5f1f8090fc4U, 0xcde17fdfffc12e8U, 0xf20f06e3fdef2c2cU, 0x9f5fe04e5dafe18U,
  0xf9c125c3db0701eeU, 0x5ff44b4d3e730fdU, 0x60e000f0de2fffdU, 0x214bd1ff4fbf6f3U,
  0xeffef6ffa8e80bfeU, 0xe4d8eed7cb162f1fU, 0x300cdd01bbd81920U, 0x3c9f007e603e414U,
  0x8cdf8e5ce49de0cU, 0x1d292409daee0d23U, 0xe4ecf8fe0c1af3fcU, 0x236c023fdf4f4e2U,
  0xe3e8f4efd804e2ebU, 0xebda1ccebe1a2504U, 0xff26f4e2c7e1101aU, 0x10f0dd080808d00aU,
  0xe2e4e504cb28e30eU, 0x35041116e4d90725U, 0xa5d02924352b01ceU, 0xf324ec28dff40af7U,
  0xbe6cfa9d018eeeaU, 0xeefb1ecabf1f20d4U, 0xd0c06bcedea0f1cU, 0x251de91416f6ff10U,
  0x16c318eade2d1d14U, 0xfee2d8c1f7081206U, 0xe5f7080d28e60f07U, 0xf4e9c8f801f4fb0bU,
  0x2ea13ebdffde92dU, 0xd1fae5df0628250cU, 0x22f8ca00d40de0dbU, 0xedf2f5300410f020U,
  0x15ec09eef4330033U, 0x509ba14020fee0eU, 0xb7c30d063e0e1c14U, 0xbd0e9cfecd8ec01U,
  0xf2fa05ebd7fbf723U, 0xf70413ce051e0802U, 0xcedf3efeaf6fc03U, 0xf803b02a1305df25U,
  0x1ef302d3f5290e23U, 0x6e89f0c0cfcf508U, 0xa6be2c193d2827ebU, 0x3ecefe6e3c1f121U,
  0xcf6cfafbb0de818U, 0xfb2315d2fc1af30bU, 0xeed411e4f2f00af4U, 0x2df7dc141807ee16U,
  0xffeba51bfc0e0ed0U, 0xa10161e34eb441dU, 0xf65ff0dbe2c5260eU, 0xfdfcc4c30c34bcfcU,
  0xd50cf91decbbe911U, 0x490e2bc3330a0bf5U, 0xede2eaf329f71246U, 0xf7c0d7f91a2bd5fdU,
  0x5edd601e214edd5U, 0xda1327180bf01210U, 0xc3911b802b91e38U, 0x28fdebd2f62fb1d9U,
  0xcf26092b0ef30611U, 0x24080ff91f0f26d2U, 0xebd6f0fdfde4250aU, 0xe2e3faec0026def9U,
  0xf0edf9eae11cdfc2U, 0x270f632be8e5d710U, 0x133e19a945e72613U, 0x3936fce6c147f5ebU,
  0xb91bf310210d1002U, 0xf20b1ffa260f28d5U, 0xabe07f0f6000d22U, 0xe04cf8e3ed08cc0cU,
  0x1c03d627b9f7fdf5U, 0xfaebfbf124cf09faU, 0xdd18f4cf131405f1U, 0xcff0e0d0de09ffe8U,
  0xeb28192ac1220520U, 0x11081dc9ed1f00d5U, 0x504d9f419d14810U, 0x5f6ac0df501f6efU,
  0xf3efe532d0faf1f2U, 0xf204e8d8f405d714U, 0xfc0000dffdf3de0dU, 0xfdeaf3f4c11f16e9U,
  0xf082822e02af601U, 0xf5f9edf3f8160fddU, 0x6ff1fdb34de1ff0U, 0xa0ae6f7f60ffcf5U,
  0xd0e70a27c6f1d7f4U, 0x18f9eaddf904e119U, 0x5dd29f81220b2e0U, 0x1a0fe6fed80c3400U,
  0x2a00fbc7e80fe7f4U, 0xcddc07f6e8160df5U, 0x2efc36de21f8fbf5U, 0x12ee10df3f3e9fdU,
  0x2a081804ee12212dU, 0xe001c6ec01e8d2e6U, 0xe9eb010c391bedb4U, 0xded4ffcae1e4ede3U,
  0xed3203f3eb323720U, 0x740d9f6e219f7e5U, 0x2efbe3ed00034203U, 0x1e31bd56d800091bU,
  0xe508fa0c1cfd2a26U, 0xdb11a2e3f816e50aU, 0xf8ebeb0f0c15ddc4U, 0xeda11718dbd706f6U,
  0x9110cdcde2b1ff3U, 0xd42ee1ebef0efcf2U, 0x2b0412e110010ce3U, 0x147c31be9e9f926U,
  0xe8e825df11ec280aU, 0xff1781c6ee18fc14U, 0xe4d50a2cf718eed4U, 0x4f004381db92417U,
  0x4bf009b3edfbf0ecU, 0xd70d04e8f7100f19U, 0x2a0a49d0f50ce20fU, 0x231dba22f3ff1025U,
  0x32d23e33b1311eeU, 0x616ca0f3f15f8f3U, 0xa2c8efdbf30f1dc8U, 0x290a11daebe63623U,
  0xe51024d5cc04e5dfU, 0x1e08fbe8ebebbe16U, 0xf3280eeceeb0e6e6U, 0xff9e0ef5e6fe1601U,
  0xd51511a4301a19f3U, 0x241bd8fe281220f7U, 0xaf306dae0111defU, 0x1622efe002e74823U,
  0xef0d19bcc6f5e7f8U, 0x90a1f04ede9c31dU, 0xed1916ecd7d1f41bU, 0x14b71b1805dd0b0bU,
  0x6132bc20d09ffe2U, 0xf0b00d63df523ffU, 0xe4f514e0e91611c9U, 0xfc23f0dcf2fd5d2bU,
  0xe41d02d4b5f3da1fU, 0xb011be7e301db13U, 0xd6eeec08dceaeb19U, 0x16ca1e3c0ae90bf0U,
  0xd9ee05f53a14f403U, 0xf6ebeaed1424d2ebU, 0xb8ee11fcbde2ff14U, 0x260a0b01d7f3f20eU,
  0xd61934f524f1da36U, 0x309fefedaed050eU, 0x412f04ffdacccdc7U, 0xdac1d612ed0f3603U,
  0xcd1fe8e0291105feU, 0xcdce5ef031711e3U, 0x251ff005c2f3102eU, 0x2c290304e7fa0dd7U,
  0xea231bf01afbec30U, 0x18f3f90adfe4051aU, 0x3f37181dcf07d712U, 0xe6efd82bf5152414U,
  0xfa2002e40b08fdf4U, 0x1be007c806180e05U, 0x2221c8d8cbf9f3fcU, 0xa180112f30600c1U,
  0xd726ff0a0ff5ea1bU, 0x18fa1d00eedf0a2cU, 0x290d0e2ec419ed10U, 0xf80ecf4aeef50a0bU,
  0xcef3004a26f0dae6U, 0x6190bf304e823eaU, 0xe6e8f817b0da0323U, 0xf8ea0815fa06b4ddU,
  0xe21f23e833fb1143U, 0xf8da0200e1d208f4U, 0x6d140421fced07fbU, 0xde21de2815241ae7U,
  0xcb0c0b301511f5f7U, 0xed08f5f9f7eb0dcaU, 0x1439f204d407161cU, 0x14070c3411f5c6cdU,
  0xe21d15fe22141112U, 0x13cbf814e8f91606U, 0x50181d2fcf1cfddcU, 0xf21bdf33d32c150bU,
  0xe9ff0a34010414f9U, 0xf210fef3ed0deaccU, 0x332fcde3d409ef04U, 0x1ff6f927f1f4d7f3U,
  0xe72211d51d1cedccU, 0xfcb7080ed5ec243aU, 0x490ef627811beee7U, 0xfc12d6219a002a10U,
  0x12d830cbc81b111eU, 0xcafd181fce2111faU, 0x1b0c23ccf7ec4105U, 0x23ceddec060ecf21U,
  0xf4da15c0cdc90d07U, 0x8d7fff1555612dbU, 0x15250cc43f031031U, 0xb0e91bd2f832f7c1U,
  0x23152d09d327171dU, 0xdaf40006c82c2009U, 0xc7f609cce81e25e1U, 0xfbe3fbfbfb0ee20bU,
  0xe3ed1beacdf13303U, 0xe4eefdeb314119c6U, 0x4f90ded35fb1a03U, 0xe4eb06d3e525efe0U,
  0x3124c004d9332827U, 0x81eef6fceeee1217U, 0xd1eee4efff1f1bf5U, 0xfd17f207f0f42612U,
  0xcef93333df302f2eU, 0xee04c5fc07141103U, 0x11d72a0206f438fbU, 0xfb0a14bef83a151cU,
  0x5bf2e07ed13c6e3U, 0xce1204130d0011f3U, 0x321b06a626ad1c16U, 0x22c8eecf160ee5faU,
  0xdef7fdeeb7d9de1dU, 0xeef19191727e6f4U, 0xcf05c1ee38fef710U, 0xe3d90cd10213d0c4U,
  0xfc19fc1be906f406U, 0xd4efe6f5e2022410U, 0xfb0db0eedc1af4U, 0x23cd0402faf1fbedU,
  0xf7f5e704ca011a18U, 0xde0af5f2152be8d9U, 0xddefeaea0c090be6U, 0xecdefac8d907cfaaU,
  0xa30c222dbf9130fU, 0xc2deffffc9b32b09U, 0xfa0a11dcf3e90bdaU, 0xc0e03050bee25e2U,
  0xedfdee3d061a1e45U, 0xdc0accf105e9f9e3U, 0xf4ca1e0fdf1608e4U, 0xbfaf7c4d922fae3U,
  0x39a351fee1ad2caU, 0xb512b922401feacfU, 0x321bf3ba14c5cd18U, 0x31e8f6b60700ef20U,
  0x14e60d20dccfe838U, 0x3fee0d13ef0ae00dU, 0xc319a5fd18d3da2fU, 0xe9dae4e5e114f6cfU,
  0xd8e80e37e4e3f1e2U, 0xd207dc1210052108U, 0x130504d0f9c6f0feU, 0x36fdfae6fb04f0f8U,
  0x46edd512eff11e1aU, 0x122009031418ebf4U, 0xbf15bb010ef4e606U, 0xdcf2efd0c80de6b6U,
  0xdb061635e8b219e2U, 0xe82f072fc6a31405U, 0x260f420df5c300f7U, 0x1630fce30a0319d1U,
  0x43fbf435201bfb11U, 0x162aeb1d0de6ea12U, 0xf4eafb07f0dfd606U, 0x1ef403dbab1cfbd6U,
  0x80702fc1e3725d7U, 0xeee6c92000ee1b17U, 0xd01dafe3bdee351cU, 0xc41b26f026f72a35U,
  0x11d1f6a0f9f5e369U, 0x39e1fadafb1534ecU, 0x2aa5b8b71eda9e14U, 0x1bfaad182e481f0eU,
  0x1ce8feee0c272dc3U, 0xfabb0918cdbb1ffdU, 0xf61bbb86aac91d27U, 0xe80916c9070f3520U,
  0xfcf6feb6ebf2e740U, 0x7ebf6fd08ff2edbU, 0x3aafc7e313f8f5efU, 0xf10cbe162d13070fU,
  0x160ff41d040a1ec6U, 0x4fd315f82bd3f1b6U, 0xe46c4dde0d95f18U, 0xd417f69d081c15e0U,
  0xeafb199bdd0e0b60U, 0xd5cbf205090433d2U, 0x2d88d30419ed0504U, 0xf30bcc1833eef911U,
  0xf803cbee1b26de07U, 0xf0efd927e3c81a48U, 0x1536a4fab4b9ed0eU, 0x9f0c0d400522fd12U,
  0xb6cc03b50df6e76bU, 0x20c63e140c0ae4f0U, 0x11dab8ed1af8aad0U, 0xfdaddef71a3e39feU,
  0xf3f5dafddf0afdebU, 0xfcd31723bcf00632U, 0x3c15e8bfb399cf1cU, 0xe1e4fa20e41504e1U,
  0xf3cb16c9f9f10029U, 0xe0ab38120be9f4ecU, 0x1bf3c6ed0afb08c0U, 0xe7ece50610002d0aU,
  0x3f3fe17bce507dbU, 0x4efd06f6fa0de417U, 0x224211ebd6abf40eU, 0xe7d1e4f3d10603ffU,
  0xf6ad1cdc0020fe28U, 0xb9ae161e011906dcU, 0x4fe1b7fc2ae20df4U, 0xfc0ae019ede30ee4U,
  0x152ee9d63c0606caU, 0xf2038118a304292cU, 0x270bce1299ca33f4U, 0xc843662924be0ff4U,
  0x2f1f6e214d9c8efU, 0x223427eaf9e7fe1dU, 0x8a9e316605dddc2U, 0x42dbff4608181626U,
  0xee5dfd3fb151ad4U, 0x12cec707b0344b14U, 0x520ce8c7aea03319U, 0xa05272503e139d7U,
  0x1ff22adc06dcbffdU, 0xd70b16fa24fc2524U, 0x5c40a14524301ffU, 0x4cedf13aefca191dU,
  0x30f61a23c61128e5U, 0x600300cbf2245713U, 0x2552d4fadae67d30U, 0xf4f1f529e4f72607U,
  0xfaea51fa1dcae91fU, 0xca1beee4173e350cU, 0x65c1cefd78510406U, 0x49d7cf50c5d213bcU,
  0xa2a16d8cf1bf0d4U, 0x24afbe1f047c0fdU, 0xd1decfd6112ef06U, 0xeb7ff0ae3f25e903U,
  0xeee8f3dcd1bce7d7U, 0xd3e4ffe9ef171e01U, 0xeeca01d3e02aef39U, 0x111aebaee4daa71dU,
  0xf932f5c0022943f3U, 0xeb2df8d7f731d913U, 0xeffce8e04617c311U, 0xff58eabc2419d320U,
  0xe3d9edffed0acfdfU, 0xeaf2e6e6f5351be6U, 0xe6c7fcc5fbf0d83dU, 0xb18eec504cbb2fbU,
  0xf171bb6260642e0U, 0xf74be9e5df33f406U, 0xa1dde8fe1137daf7U, 0xbe561bbdec17b85bU,
  0xedae6fe172bddb7U, 0x20ad0fde42e00faU, 0xdabf09dc0ee8d13dU, 0x9e409f511bcd1d5U,
  0xdfbe6019c1bccebU, 0xe37100bd4f7e52bU, 0x241915c6f7dcf3dfU, 0x132ac3144a291ceaU,
  0xbe212d3c4b6c9ebU, 0xf2b74ae90535dc02U, 0xaece1ce0709043aU, 0xd0041499d5e2ea01U,
  0x1709c8e3ad1e030bU, 0xfb2e00fff2ee0e24U, 0x2cf8f4d90c03d8f0U, 0xeb1fe0fd2b1618e4U,
  0xf9d01e08ccf4beeeU, 0xedea28e7eb34dcb7U, 0xfef7c7d7f5f1ef14U, 0xe7f5edb1ef08f0f3U,
  0x1411ddcad0ff0df7U, 0x25fce8e8060d19U, 0x17dcf6f212261819U, 0xd3430aef0e152bffU,
  0x3ce1b09ef04badaU, 0xef190defe92fe7ceU, 0x14f9b50208fd1627U, 0xfbe9ddf8110fe2ffU,
  0x30a6dceafe419ff6U, 0xc181f33fffe2c06U, 0xb11e3a4da28f0U, 0x30d10c4b3e072b0bU,
  0xf70aef30fbe4df2dU, 0xefcf24fef356d9f3U, 0x1df8c6ce09d8052dU, 0xc2da08ef2b9023c6U,
  0x41d1dee2f84aa918U, 0xcf5f81eee1528f8U, 0x25f9e7ccc9f20608U, 0x13b61c473ff027e7U,
  0xd9eb1d47f9f2eb06U, 0xfae117f2e23adee1U, 0x20fcc0df03e0ea0fU, 0xbadbf3f51ca910d3U,
  0x25d5c3c9042dcf23U, 0x709e436cf1e2ddeU, 0x2de3fcd8f0db3001U, 0x1eae093357e21707U,
  0xb2e3275d240bdd16U, 0x240c06f80b24e0f2U, 0x16f6c1fed3051537U, 0xd30801fa03d7fb0dU,
  0x27fa01e7041612c9U, 0xdb1fe0c7115100e0U, 0x3c20e3ed2beef6d7U, 0xa30e3f82109cc13U,
  0xca2b0f06d9d323ceU, 0xed2d0d37f5040bf0U, 0xe6b8200e13191e16U, 0x2b05eee0c9ddd043U,
  0xdddf7d4121b32ceU, 0xc60b0aa9292cdff6U, 0x3e3a05cc06f8efd3U, 0x432de3fd2031c7e5U,
  0xab13dc1be3fa3de8U, 0xed12d12ae50e1003U, 0xe1dce801f00ef12bU, 0xf9eee5e6e6f1ac21U,
  0xfee622d33ff52bdbU, 0xf0ff6f00152ebc9U, 0x252e20e0f40beef2U, 0x4139230bdd0ef0fcU,
  0xb60fd1bb1b1c03e4U, 0xfcd7c52ce31e0524U, 0xf3cde4dc0318d105U, 0xf581f012fdafbe18U,
  0x3403e0fbc8f4ebeeU, 0xea0333a10cfc1709U, 0x1b30e7cb22eaddebU, 0xe932c3163235f6ffU,
  0xe329f712c1c809cbU, 0x1d041609ecf10905U, 0xff02e708130fe161U, 0x1ffafcc9c6e6c315U,
  0x2f08d8cee90502ecU, 0xfb0f2ab71d08f204U, 0x3429fce51feff7f3U, 0x11fda0d0e2dfdf7U,
  0xc1f40722daea04ddU, 0x10ffe421cef003ecU, 0xf20cbd030b09e616U, 0xf2d8e4d2fae6cf0aU,
  0x212eddae1ee04f7U, 0x1f07f0f0122ee1deU, 0x1ef1f20af71d031bU, 0x112a0dfedc012bebU,
  0xf9f1f2d00625ccfeU, 0xf9fbf515e1040fd2U, 0x140cc6dc0a10f41dU, 0xffb6cf1202ddfc21U,
  0x27f9caf1d2fbc5edU, 0x2efd34fb0fd62010U, 0xef16f91b43db03faU, 0xfe2fa12f22410c28U,
  0x2b14e329cba2f235U, 0xfa1018e802fbefedU, 0xff2ab6e806fe0f2aU, 0xfd09fceff0e1c62cU,
  0x120ee0c0d645cb00U, 0x2309f21113eb1f1aU, 0xfff0f2ffede01cfcU, 0xe8f5dd0df90e1401U,
  0xee10b0ed8e8e131U, 0xfd0b14130513ea9aU, 0xfc1cd0d727efe5efU, 0xcdf4d3f014f7fa1bU,
  0xf505ebccb128df31U, 0x32eda5efe21e1510U, 0xd4d41b0fc5044723U, 0xd8bcf62bf1e729fdU,
  0x2fef1710e229bf3aU, 0xfb0e240c1a292be0U, 0x262407c909e7da19U, 0x4f1011325fa1cebU,
  0xf1ff3b00c6deeb0eU, 0xf7e8c1d3f415f6e5U, 0xae4eaf0f10dabccU, 0xe51cd42a0f112d17U,
  0xf11f1415de260ef6U, 0x1239f939afc7ddf8U, 0x13caf9f8c9171907U, 0x2df527dde6bcfb06U,
  0x2203fc09d0e6eff0U, 0xea202bcfd10430f4U, 0x170e260e2405c7ccU, 0xda42c0160a021dfbU,
  0xd531e31bd8f9fbefU, 0xe82e0c1eb9f2e9f3U, 0xf9e7df24ca221b32U, 0x1f30f7dd03f6e81dU,
  0x1ae9b216f711f9d9U, 0xfd4465ef01df1ef7U, 0x2b373ee450eaf6f1U, 0x554cce8c51af2d4U,
  0xa845b9f8d2ed00e8U, 0xafd14e7efede1f4U, 0xebcce218c7f7082bU, 0x2137e9db2511cf2fU,
  0xf80323f0cecf020fU, 0x120205d6d3e71bddU, 0x220908260822c900U, 0x33f5c524f1141d19U,
  0x3ff4f5dbf634dbU, 0x1507f81d9bd205f9U, 0x1be503fdbc1f0b33U, 0x2cbc16f4d007f0faU,
  0xf30ddcf6d5ddf4f3U, 0xeb1726ca9ae63819U, 0x2a22150a2623f3f0U, 0x101cb303e50efff0U,
  0xc63deaccc5d3fabbU, 0x220f615a6e824f8U, 0x5ebf216bc041e21U, 0xc0ae4ce091fb117U,
  0xdedad5120ef9eff1U, 0x19191eedf2cb0a12U, 0xf1244d013a2cfbfcU, 0x738f2dfd306f5f8U,
  0xc531dcbdd4d1dedaU, 0x181c04cad6051a0fU, 0x36dbdc00f6ea0112U, 0xf83ffdf22f20eb0bU,
  0xe528dff2e0c71f08U, 0x20051fdad2e32ef3U, 0x1529200e2408a931U, 0x2cf2a035e40500fbU,
  0x290de3fce1d22dddU, 0xcff003c3fa27f8e7U, 0x3061ef2adf4eaf2U, 0xe8f038d6c0290227U,
  0x124eddbf3f1d8f0U, 0x132312f3e2ed3f2aU, 0xda2b0f000813e93cU, 0x161bcf1ef10bec0eU,
  0xf40d0afdd7ceeee7U, 0x406fde8f810da01U, 0x1811fce8c9b9e513U, 0xe40107ea1b1fca20U,
  0x1ff3e6033d08efd3U, 0x3528dc05eccce403U, 0xb60524f9e82af7eeU, 0xef1bf4e8ce0d0cebU,
  0xf213c403e0fdeaccU, 0x25260fc9ec27f41fU, 0x39f2d3f4d481c525U, 0xd9f22a101722ec0fU,
  0x32fe806160dead4U, 0x19e73d05168143f1U, 0xed21e4f11ded34d6U, 0xde02d2b8fb1c2e30U,
  0xe52ec70804c1110aU, 0x14101d0aea0d10ecU, 0x1316c921f80ff448U, 0x1013ede8f70f06eeU,
  0x18280516110103deU, 0xd0e29e906d732ffU, 0x420fcf7330123e1U, 0xda17d4e1f30bff07U,
  0xc920000d06db0ef8U, 0x61fed00eb220ee3U, 0x160dc419f8e62e29U, 0xe20ed8ebef10cefcU,
  0x3536fbf61805f5eaU, 0xf81727f010f11111U, 0x92bf9da2cf90401U, 0xf30cfcfd030edfbaU,
  0xa21f1b41f7041ae0U, 0x181fde300cf215d4U, 0x8efde0b02dc1815U, 0xc9fa05ecf117bb07U,
  0x225d7f41403ebe1U, 0xfdf20fcce3c9260fU, 0xf70aec4803fe09dcU, 0xd125dccbf6011c10U,
  0xdd0af50703f7fd0cU, 0xe00b20f0f333f4eeU, 0xf215f5291af8feebU, 0xf728cb00f9e20f23U,
  0x51e03fcff0cf6fcU, 0xfbfa03c6ecde161aU, 0x8fe041d090ad9f3U, 0xdb09d9e0fe1220eeU,
  0xe410fe1102e3e2edU, 0xee03f0f5e81cf5e5U, 0x124ea0b0ae41bebU, 0xeb19e2f8f4e0f21cU,
  0x1421f5ecfd001106U, 0xe8fff6b71cf3f712U, 0xe5f6feed0007e014U, 0xee14e5f207120cedU,
  0xdb0f122cf907f1ebU, 0x60cd205edff10f4U, 0x709ddf80ad91afeU, 0xe70afe0001e9d218U,
  0x328030229eacbebU, 0xf0fdf7eae0bb1613U, 0xeef4e958e5090fd5U, 0xc43919c7dc01032dU,
  0xd0060519f917de37U, 0xee2c1af5fe24dceaU, 0xf0fdf2272e17f701U, 0x13ee5220ac61319U,
  0x150f0f14fff7e501U, 0xeb0af4ede5b5111aU, 0xfbfcf52df105d60bU, 0xf50f0ae0ea101ceeU,
  0xe309f51cfe06e103U, 0x1115eb07120ad3f0U, 0xf417e0000ffe0e06U, 0xe8210423f7d60010U,
  0x162af40a0def120dU, 0xc008c3e8eddbfdfdU, 0xe1f3f219e119e924U, 0xfd06ffea1bfe03f0U,
  0xcc1e1240110fe316U, 0x1c0cd40906f7da02U, 0xe607d9f601fd2227U, 0xebf8e619f8d9f51eU,
  0xe2a00f90ff107e9U, 0x271008fc16e03524U, 0xf42af1110cfe1bd5U, 0xd01802f9f8ec1721U,
  0xfa22effddd020df6U, 0x27f8fbcada272221U, 0xff2f5ffdb14f401U, 0xe9d6e8fc171a0802U,
  0xf309ffe427f7fee9U, 0x3f260c2322de1b28U, 0xef1a021a37100bc7U, 0xd615eef116da1221U,
  0x2c07e30ee9dae0d7U, 0x1608f7c3b72a2921U, 0xf701eded1df4fdeaU, 0xdf03a2161211fa0aU,
  0xdae2f6de05eb05f5U, 0x2c130c280db8f812U, 0x217181a3e2f28e0U, 0xf808d5e329ed0632U,
  0x5201c91cf1aee0cfU, 0xd2314cec2503e0aU, 0xffeef2c827f91105U, 0xe861b609f3d1e723U,
  0xb1dcce4f70214f4U, 0x6fefacb15f12c00U, 0xd707fc4de7f707e1U, 0xb436f705f3db21f4U,
  0xbf2f40c031fe1fcU, 0xc002ffd2f80ad0ecU, 0x3dcef14f5fcfa05U, 0xdcecccfbf8c91524U,
  0xfb0ed1f3fd0d1c0bU, 0x905f0eb08e4f721U, 0xddd51a4efd1afbdaU, 0xd825e7ebfff20bf4U,
  0x17ffe124ee17f9f0U, 0xe0eff4c5e7fcca02U, 0xef03e5fe14010105U, 0xe7019e160cf2052cU,
  0xfa05d605ec062514U, 0xfae7e6e2fbdfe21eU, 0xe7c1426b281feeedU, 0x61bb2dbf0ed09f2U,
  0x23f4df3def1c1102U, 0xe21e0ce3ceeec6f9U, 0xe8f7e0f205e82eecU, 0xf026d1f7dbe4fa35U,
  0xfd0dedee0f2c1305U, 0xe5d3bae9f7f70be7U, 0xcde108478116fbc0U, 0x97eb30c6d3ba0c1dU,
  0x15d2e11b1523c231U, 0xba1d41dbfdfacafdU, 0xfad706072d370e39U, 0xeef5e74af19f2630U,
  0xd1df9ee07222d24U, 0xeae1f3fed2d207faU, 0xf0dd2d35db32e9e4U, 0xc5f411d5d3c8fdfbU,
  0xf1f9d811fe2f2a0aU, 0xd01c17c904f1cb02U, 0xfae303ec182d2616U, 0xdffec62be5cf021dU,
  0x43203fae5174031U, 0xdabedcf6b7e012fbU, 0x6e4354b1a34d4e7U, 0x13f9e9f1d9c0fb19U,
  0xf906d91c153d4414U, 0xd13335eff6c6f4fcU, 0xe7db11f8fe0c42e6U, 0xfb21e41eb7edfa21U,
  0xfa0323392ad707d8U, 0xf8f5a52423df1b13U, 0xccfbe73ad72df2b0U, 0x140046e3c32400U,
  0x1033400171127ecU, 0x1d26c608fa02f515U, 0x1ec5000f0ee746f2U, 0x14ebfe31d3f05526U,
  0xc30f2e2042dd19bdU, 0xd7f8bcd11f15f21fU, 0xe9dceb2dc331d2d8U, 0xf318e41608c51400U,
  0xff04120c1a0507f6U, 0x212fcd2fcd2707ecU, 0x4eece91df8e527e3U, 0x603d90ce4d93401U,
  0xd8296bb7ecddfd99U, 0xd08f9abe864f7e6U, 0xfca2137f0226e120U, 0x3dadb18c82a4fU,
  0xf811d91632c8e4dfU, 0x11f084bb028218aU, 0x2acec412e1effa08U, 0x1ad8fe0dc799fa0fU,
  0x1e70d200d0511faU, 0xcfe1f2f30dde1407U, 0xa8edfc590648f4a9U, 0xe10f0c3bd8c03cedU,
  0x19fce70e1a1a3af8U, 0xe514bfd6ddfd15f7U, 0x26eae126ddeb30f6U, 0x2bd7d23bced049edU,
  0xf8e512123008ee05U, 0xe6f413cc1ae81400U, 0xfaecf14cfc12edf9U, 0xe41dd020e9d317e5U,
  0xb803de19fd131cf8U, 0xe930b8fdc1142411U, 0x4dfde324d1db1f12U, 0x1ead1ff01f231f9U,
  0xfd2610c1eeed03e4U, 0x2f0238b7e9100219U, 0x1be9e0352c041155U, 0xafade10e5e00c09U,
  0xb2ddd5fde4db14d0U, 0xa22ed039a1012edU, 0x1c09ea0a00dee2ffU, 0xcdbf0f60effdf19U,
  0x13fd2942e30d2525U, 0xfd04e3cfc6ed39e5U, 0xa5f21858f23ad4ebU, 0xdf050f6e22e936efU,
  0x2907f2cbf91f1305U, 0xc9e9f2922a242b0aU, 0x39012534dc16e4a6U, 0xebd9124694f44f15U,
  0x1cee2d21f903fc32U, 0xf4e817e6e1eb5516U, 0xc90bf54dee02ee29U, 0xfc10e155d8d700dbU,
  0xadff0602d8110b04U, 0xe6f9cd05021514f5U, 0xe0a0512c9d10effU, 0xfbe1dcf9fb07070dU,
  0x410dfcd401190233U, 0x180020dfe031fb12U, 0xe611fa042c0c3d60U, 0x27d6d806d2fee317U,
  0xc1f50901d8060ffeU, 0xdb0615e6fc1be5f9U, 0xc41f2bd9ddd90209U, 0x15ddffdd030a953eU,
  0xe24325c90e0c12edU, 0x1b1db89dc500e102U, 0x1d0839e01a060fU, 0xfe1113f412e7fcd5U,
  0xeb0bf20a26ecee01U, 0x111af3f81f080a02U, 0x3a092300e518d2b3U, 0xe7c032f5c0fc21edU,
  0xdc4df5d211f7ecf9U, 0x401ad5eeefff0c16U, 0xd012d63fd10e12d5U, 0x1707051dfecc08e1U,
  0x7dae0f52cf2130dU, 0x1800ede2f7fb080aU, 0xc2218f9f0fef4d2U, 0xd4f312f6f5c728fcU,
  0xe74fd50ae3febe01U, 0x311ef62908dd4b40U, 0x1105932bb6ec02bcU, 0xff50a28f9ca21ebU,
  0x16d6dbd809e23226U, 0x250d05fbeef802e1U, 0x17210e07e11afbc1U, 0xe11e15e0ffd11405U,
  0xe0f935eb032828f0U, 0x1003e4a0d016e90cU, 0x209241af50de427U, 0xfd1f0c0e0dfac4c0U,
  0x14fe1c1f150ed9eeU, 0xd0fe4fa0e200aeeU, 0x23010f10e206d3ddU, 0xebde0a05e22c10fcU,
  0xecfb04cefa0ffe05U, 0x15efecf8e711fb08U, 0xe5ee28200c1104f3U, 0x30090427f5cddeccU,
  0x10daebfd141800f3U, 0x1af5d8ece91805f7U, 0xd18170ed709ebf0U, 0xd1f0ce07f60a1df4U,
  0xea21ece6de19ea14U, 0x2bf6ec13f2f81732U, 0x7fff421ebe506d2U, 0x22f4f02effd0ebf1U,
  0x22d8e5ae010b0f1dU, 0x2405ef1605fbebdcU, 0xb152a11db1e13e4U, 0xd509f8fb07e32313U,
  0xed0c22f7ece12dfaU, 0xe019229fb32ae90aU, 0x8fd18efeb1de718U, 0xe2cd22feeadeccb2U,
  0x1b0128f2e409b0f8U, 0xbcf9f8e5f61b0f16U, 0x1fd90304a01807e7U, 0xe2ef15250f26110eU,
  0xeef61dd3050c17f2U, 0xcff609fad419dc16U, 0xe9f61407fa13fdeaU, 0xefc27f8eec4dadeU,
  0xbe11bcc000bfd13U, 0xfee8e6c6ef1826f0U, 0x14e70424e437fb06U, 0xf6f1ce13ee1d2ce5U,
  0xfef2fdfcec1cf804U, 0x6ecda171ef5fb1cU, 0xe0fa032bfef9f3ecU, 0x32fa00fff1beed17U,
  0x39d1ef81fde20327U, 0xffdb00f701f71ce0U, 0x2bdaf925f62503e6U, 0xdcfbf20de80f0fdfU,
  0xe91914f40cf2eaf2U, 0x1042a8f2f7401512U, 0xf042120102170bbeU, 0xe51211f800f8f608U,
  0xf3f708f72407cdfcU, 0xf90ae235ff161effU, 0x20d20eb0c0d0cc2U, 0xd605eff5f7d2d0f7U,
  0x8111fdf2df5e812U, 0xfb20d005fb01070aU, 0xce0a23fcf612eae5U, 0xdfe5fbf225f7102aU,
  0x34f8f3110607c7e7U, 0xeb12ddfce50c1d0aU, 0xfdf620f7f9efe4e1U, 0xec17dff6fcd4d702U,
  0x14d038ed29fa001dU, 0x1c0af223c4acfbf6U, 0xaff807ffd910ecfbU, 0xc6e9d9dc381ded3cU,
  0x6cf8e8131bdac0edU, 0xeb2f05e1e923020eU, 0xedf40fffe1daebf5U, 0xfd45fb0fdfb8da0aU,
  0xb34e2dde90b14e7U, 0xcf4d4be1a1819faU, 0x10f3f21a060ec7U, 0xd3eaf304f3081febU,
